#version: 0.2
Ġ t
Ġ a
h e
i n
r e
o n
Ġt he
e r
Ġ s
a t
Ġ w
Ġ o
e n
Ġ c
i t
i s
a n
o r
e s
Ġ b
e d
Ġ f
in g
Ġ p
o u
Ġa n
a l
a r
Ġt o
Ġ m
Ġo f
Ġ in
Ġ d
Ġ h
Ġan d
i c
a s
l e
Ġt h
i on
o m
l l
en t
Ġ n
Ġ l
s t
Ġ re
v e
Ġ e
r o
l y
Ġb e
Ġ g
Ġ T
c t
Ġ S
i d
o t
Ġ I
u t
e t
Ġ A
Ġ is
Ġ on
i m
a m
o w
a y
a d
s e
Ġth at
Ġ C
i g
Ġf or
a c
Ġ y
v er
u r
Ġ u
l d
Ġs t
Ġ M
' s
Ġ he
Ġ it
at ion
it h
i r
c e
Ġy ou
i l
Ġ B
Ġw h
o l
Ġ P
Ġw ith
Ġ 1
t er
c h
Ġa s
Ġw e
Ġ (
n d
i ll
Ġ D
i f
Ġ 2
a g
er s
k e
Ġ "
Ġ H
e m
Ġc on
Ġ W
Ġ R
he r
Ġw as
Ġ r
o d
Ġ F
u l
at e
Ġa t
r i
p p
o re
ĠT he
Ġs e
u s
Ġp ro
Ġh a
u m
Ġa re
Ġd e
a in
an d
Ġo r
ig h
es t
is t
a b
r om
Ġ N
t h
Ġc om
Ġ G
u n
o p
0 0
Ġ L
Ġn ot
es s
Ġe x
Ġ v
re s
Ġ E
e w
it y
an t
Ġb y
e l
o s
or t
o c
q u
Ġf rom
Ġha ve
Ġs u
i ve
ou ld
Ġs h
Ġth is
n t
r a
p e
igh t
ar t
m ent
Ġa l
u st
en d
- -
al l
Ġ O
ac k
Ġc h
Ġ le
i es
re d
ar d
â Ģ
ou t
Ġ J
Ġa b
e ar
i v
al ly
ou r
o st
g h
p t
Ġp l
as t
Ġc an
a k
om e
u d
T he
Ġh is
Ġd o
Ġg o
Ġh as
g e
' t
Ġ U
r ou
Ġs a
Ġ j
Ġb ut
Ġw or
Ġa ll
e ct
Ġ k
am e
Ġw ill
o k
Ġw he
Ġthe y
id e
0 1
f f
ic h
p l
t her
Ġt r
. .
Ġin t
i e
u re
ag e
Ġn e
i al
a p
in e
ic e
Ġm e
Ġo ut
an s
on e
on g
ion s
Ġwh o
Ġ K
Ġu p
Ġthe ir
Ġa d
Ġ 3
Ġu s
at ed
ou s
Ġm ore
u e
o g
ĠS t
in d
i ke
Ġs o
im e
p er
. "
b er
i z
a ct
Ġon e
Ġsa id
Ġ -
a re
Ġyou r
c c
ĠT h
Ġc l
e p
a ke
ab le
i p
Ġcon t
Ġwh ich
i a
Ġ im
Ġab out
Ġwe re
ver y
u b
Ġh ad
Ġ en
Ġcom p
, "
ĠI n
Ġu n
Ġa g
i re
ac e
a u
ar y
Ġw ould
as s
r y
Ġ âĢ
c l
o ok
e re
s o
Ġ V
ig n
i b
Ġof f
Ġt e
v en
Ġ Y
i le
o se
it e
or m
Ġ2 01
Ġre s
Ġm an
Ġp er
Ġo ther
or d
ul t
Ġbe en
as e
an ce
k s
ay s
ow n
en ce
Ġd is
ct ion
Ġan y
Ġa pp
Ġs p
in t
res s
ation s
a il
Ġ 4
ic al
Ġthe m
Ġhe r
ou nt
ĠC h
Ġa r
Ġ if
Ġthe re
Ġp e
Ġy ear
a v
Ġm y
Ġs ome
Ġwhe n
ou gh
ac h
Ġth an
r u
on d
ic k
Ġo ver
ve l
Ġ qu
Ċ Ċ
Ġs c
re at
re e
ĠI t
ou nd
p ort
Ġp art
f ter
Ġk n
Ġbe c
en s
Ġ 5
op le
Ġwh at
Ġn o
d u
m er
an g
Ġn ew
-- --
Ġg et
or y
it ion
ing s
Ġj ust
Ġint o
Ġ 0
ent s
o ve
t e
Ġp re
Ġit s
Ġre c
Ġt w
i an
ir st
ar k
or s
Ġwor k
ad e
o b
Ġs he
Ġo ur
w n
in k
l ic
Ġ1 9
ĠH e
is h
nd er
Ġh im
on s
Ġ [
Ġ ro
i ld
at es
ver s
Ġon ly
o ll
Ġs pe
c k
e ll
am p
Ġb l
ur n
f t
o od
Ġh ow
he d
Ġ '
a w
Ġat t
o v
n e
Ġpl ay
er v
ic t
Ġc ould
it t
Ġa m
Ġ 6
Ġa ct
Ġ $
e c
h ing
u al
u ll
Ġcom m
o y
o ld
c es
at er
Ġf e
Ġbe t
w e
if f
oc k
Ġb ack
) .
id ent
rou gh
se l
x t
Ġm ay
rou nd
Ġp o
p h
is s
Ġd es
Ġm ost
Ġd id
j ect
Ġin c
f ore
Ġp ol
on t
ter n
Ġne ed
Ġcon s
Ġc o
Ġ .
Ġw ant
Ġse e
Ġ 7
n ing
i ew
c ed
Ġin d
t y
ĠW e
at h
Ġthe se
Ġp r
Ġu se
Ġf l
n g
Ġn ow
c om
is e
Ġthe n
ow er
ĠU n
Ġse c
os s
u ch
Ġe m
Ġ =
ĠR e
i ed
r it
Ġin v
le ct
Ġsu pp
at ing
m an
pe ct
Ġ 8
ro w
Ġb u
Ġwhe re
if ic
i ly
Ġsh ould
Ġre m
T h
I n
Ġe v
d ay
' re
ri b
Ġre l
s s
Ġde f
Ġr ight
Ġs y
) ,
l es
00 0
he n
ĠT r
_ _
Ġw ay
Ġd on
Ġ ,
Ġ1 0
as ed
Ġas s
Ġre g
ĠA nd
i x
ot her
ot h
Ġsu b
Ġbe ing
ar g
ĠW h
= =
Ġdo es
an ge
r am
Ġ 9
er t
p s
it ed
ation al
Ġb r
ak ing
Ġc all
ur ing
it ies
Ġp h
ic s
al s
Ġde c
at ive
en er
il ity
Ġwe ll
ers on
Ġsu ch
Ġ ke
Ġ end
ĠB ut
as on
t ing
Ġl ong
e f
y s
Ġbe l
Ġs m
it s
a x
Ġpro v
Ġs et
if e
ment s
b le
w ard
Ġsh ow
Ġp res
m s
om et
Ġo b
Ġs ay
ĠS h
t s
f ul
Ġe ff
Ġg u
Ġin st
u nd
re n
c ess
Ġ ent
Ġgo od
Ġst art
in ce
t t
st em
u p
Ġ |
um p
Ġhe l
ver n
ul ar
u ally
Ġa c
Ġm on
Ġl ast
Ġ2 00
1 0
Ġst ud
u res
ĠA r
ar s
u es
c y
Ġm in
Ġc ol
i o
Ġm od
ĠC om
he s
Ġf in
a ir
i er
âĢ Ķ
re ad
an k
at ch
e ver
Ġst r
or k
ĠN ew
Ġs ur
o ol
al k
em ent
ra ct
Ġs ame
ou n
ĠA l
c i
Ġg ame
ce pt
Ġs im
.. .
Ġin ter
e k
Ġst ill
l ed
a h
Ġhe re
Ġwor ld
Ġn um
ar ch
im es
al e
ĠS e
ĠI f
/ /
ĠL e
Ġre t
Ġre f
Ġtr ans
n er
ut ion
ter s
ĠC l
Ġcon f
w ay
a ve
Ġgo ing
Ġs l
u g
Ġh and
ist s
ĠD e
o ot
I t
Ġe ar
Ġh igh
g an
a z
at her
Ġex p
Ġo p
Ġin s
Ġg r
Ġre qu
et s
in s
ĠP ro
is m
l and
at a
us s
am es
p r
ĠA n
' ve
Ġs er
Ġr un
Ġ :
Ġt er
Ġd et
ic es
1 2
Ġm em
Ġc r
e red
e x
Ġex t
ut h
en se
c o
v ing
ou se
as h
at t
v ed
ĠA s
d er
iv es
m in
Ġle ad
ĠB l
c ent
Ġc ur
an y
Ġc our
al th
ag es
Ġc ar
od e
Ġre ad
' m
c on
Ġre al
Ġ1 2
.. ..
Ġre ally
n ess
Ġd ay
y ing
ĠF or
Ġw om
Ġm ed
od y
ĠThe y
5 0
t on
ak es
Ġc he
Ġc re
in es
Ġre p
1 9
g g
ill ion
Ġg rou
ut e
i k
W e
g et
E R
Ġm et
o x
er n
a red
Ġf am
ic ally
Ġha pp
ĠI s
Ġch ar
m ed
v ent
i ent
p le
i et
re nt
1 1
v es
pt ion
Ġ2 0
Ġc or
ie ld
Ġto o
is ion
Ġin f
Ġ Z
t he
o ad
Ġpro g
r ic
* *
Ġw ar
Ġf ew
Ġl oc
Ġst ate
Ġhe ad
' ll
Ġst at
re t
ant s
Ġv al
Ġis s
Ġc le
an c
Ġex pl
Ġ Q
Ġa v
th ing
n ce
W h
i red
l ess
Ġde p
ã ĥ
or n
b ers
ĠA d
Ġf r
o h
Ġ /
Ġ &
Ġ ed
Ġf il
a j
u c
Ġwith out
Ġle g
Ġd ist
Ġp ut
an n
Ġpro t
2 0
Ġne ver
Ġm ight
Ġc ent
Ġ1 8
Ġall ow
ot t
Ġl ot
Ġf un
ot e
Ġt y
Ġb ig
2 01
Ġas k
Ġb est
Ġ )
I N
Ġo pp
3 0
in ess
S t
Ġc a
Ġm ust
Ġg l
Ġ <
Ġp ost
Ġcom e
Ġse em
ate ly
it al
Ġe l
ri end
Ġf ar
Ġt ra
in al
Ġp ri
ĠU S
Ġfor m
Ġto ld
" :
ain s
at ure
Ġst and
Ġ #
id er
ĠF r
Ġs oc
Ġp ur
Ġle t
Ġh um
Ġ i
r on
1 5
Ġ1 5
ĠThe re
Ġw r
Ġb us
a pp
m e
Ġh ard
ain ed
e ad
Ġt est
Ġt ri
Ġre st
os ed
ĠS p
O N
Ġs k
Ġl ess
Ġ +
ĠP l
ab ly
ch n
b e
Ġl ist
at or
Ġto p
ĠB e
Ġd em
r ation
l ing
g y
re en
g er
Ġh ome
Ġ1 1
l ine
ard s
Ġbe h
r al
ĠH ow
ĠS he
ar ge
Ġ --
Ġb ro
ĠP h
at s
w w
id ed
a im
as es
Ġm ain
in ed
Ġ {
Ġg ot
Ġ X
Ġe as
ain ing
âĢ ¦
ĠN o
Ġv ar
A T
Ġ ide
ĠS o
Ġre ce
Ġpl an
iv ing
Ġp ay
1 4
s c
is ed
Ġu nt
one y
ĠI nd
el s
Ġp os
i ver
1 6
u ro
at ter
in a
Ġn ame
ĠA ll
Ġf our
b s
ĠS c
ir d
Ġb re
Ġm en
Ġc ap
t en
e e
Ġd ri
le g
he re
Ġp at
id es
Ġp op
t o
ent ion
Ġm il
Ġ1 6
Ġo ld
iv en
ĠO r
r or
ent ly
Ġn ear
ĠE x
re am
s h
Ġ1 4
st and
ĠC on
al ity
us ed
1 3
Ġb o
Ġv is
Ġk ill
2 5
pp ed
Ġab le
Ġcon st
ar n
A R
i or
i um
or th
1 8
Ġs w
Ġ1 3
at ic
t ed
ĠG o
en g
Ġth ing
Ġwh y
u red
ur al
b y
ĠM ar
Ġa ff
Ġan n
us h
an e
I f
e g
Ġpro f
ou th
B ut
ion al
. ,
Ġs ol
H e
E S
i ans
ic le
' d
ĠO n
Ġle ast
Ġp rom
Ġd r
Ġh ist
it her
Ġ est
i qu
1 7
s on
A N
Ġ ve
end ing
iv ed
Ġwor d
Ġc ost
Ġg ive
O R
Ġp ar
ĠD r
r ist
er ing
Ġ Â
s ide
ac y
Ġw in
Ġ1 7
Ġre se
" ,
ur y
Ġe qu
as ter
al f
n ect
ĠF l
Ġme an
Ġp ast
Ġde v
Ġb as
le t
Ġde l
ĠC ol
Ġc ame
Ġwith in
Ġl ine
ĠA t
end ed
ĠS y
Ġa ir
Ġ *
le y
id d
Y ou
f or
Ġb it
on y
u ff
Ġs it
ide o
l f
is on
Ġsu re
g in
Ġl ight
Ġ es
o f
n ot
ĠT e
ow s
Ġm ar
our ce
i ol
ar m
b r
Ġcon c
Ġf ore
ĠT o
p ro
E N
ri es
Ġ2 5
ĠC an
Ġe ver
ur ity
ak en
ap s
am a
er al
is ter
oc r
en n
a id
iv id
? "
Ġs ing
ĠA m
st er
ĠB r
is ing
Ġh our
m ost
um ent
Ġse x
ĠE d
Ġto ok
A s
ar ing
Ġme ans
Ġh op
un e
Ġch o
Ġn on
Ġde al
2 4
le ment
oc i
en e
Ġs ide
ĠP r
ĠM ay
u ed
ul ation
and s
ot s
Ġc ity
or ies
Ġse ver
Ġon ce
l er
Ġn ight
it ions
a pe
pl ay
Ġd one
Ġl im
ĠP res
or ld
e b
ĠC o
ut es
ĠM r
Ġwhe ther
ro p
Ġse en
) ;
Ġf ac
ĠS u
Ġcon d
it ing
Ġ }
Ġp ot
i am
Ġsh ort
em pt
ã Ĥ
ĠG od
il ar
8 0
Ġor ig
I S
our n
it ive
Ġd am
Ġ1 00
Ġdo ing
r ing
re w
ĠW ar
ĠT w
Ġw ent
p or
m y
4 0
art ment
ust om
Ġme et
2 2
ra w
ut ure
ur s
ĠO b
s y
Ġw on
ag on
ent ial
p ar
ĠI m
A L
Â ł
ore d
ver t
ĠM in
ver age
The re
d d
Ġpro b
Ġal ong
Ġy et
o id
ĠM an
A nd
a i
ĠR es
Ġ >
Ġl ow
a f
ĠC ar
Ġh ig
in ation
Ġan t
ag ed
Ġb en
Ġre le
F or
b ack
ĠN ot
b all
ĠD em
6 0
ir l
ĠG r
u se
âĢ ĵ
Ġf ight
Ġs ent
" .
ur ther
Ġde b
im ate
A S
ort un
er y
C h
Ġe y
i ally
Ġm us
w h
p os
Ġ er
Ġsa f
ir on
Ġf ive
Ġst re
in c
al d
y ear
a un
Ġtr y
on es
2 3
Ġl and
if y
2 9
Ġa ut
E D
ĠG u
it ter
ri pt
Ġcom b
Ġ z
ĠC ent
ir c
ĠM c
2 7
is k
Ġ2 4
Ġare a
e v
Ġv ot
Ġm om
p ut
a ff
om m
g ed
Ġc ut
Ġto t
it ch
Ġn et
ĠM y
i en
. )
ĠM ed
m b
A n
res ent
Ġf re
s w
ĠA pp
Ġan al
ĠE n
al es
I T
c her
y n
o on
Ġt re
Ġcom es
u ly
h od
ot o
it or
2 6
2 8
9 9
ĠW ith
Ġw a
Ġtr ad
Ġm ess
ie f
o ke
Ġb ad
3 3
as k
ĠD on
ort s
v al
i od
pp ing
Ġl ive
ff ic
ĠH ar
ac es
os p
re st
el t
Ġf all
Ġe t
Ġ x
Ġis n
b o
Ġf oc
if t
ap er
ĠD o
ĠP art
m on
p ly
Ġm or
I C
un g
Ġex ist
Ġm ag
7 0
Ġr ul
Ġs um
Ġ ;
g r
ĠP ol
2 00
Ġt em
ill s
Ġo pt
um b
Ġr a
ĠM e
Ġre pl
Ġwho le
g o
c er
ĠA ct
end er
n ow
ĠC al
R E
O n
Ġd oc
Ġme as
t r
u ge
ri ed
m ing
4 5
f er
# #
Ġsh all
o o
Ġ2 3
Ġc op
Ġd est
Ġst op
A C
Ġl ab
ĠC ity
Ġd ou
he ad
S T
c ing
u le
ir t
Ġre d
ĠG e
an a
ĠA b
Ġh it
ive ly
Ġc ou
ac ed
e al
u ation
l u
ĠE m
ĠR ed
Ġcom pl
re g
is c
o le
a ut
e ed
f ect
Ġ2 1
ĠS en
ĠThe se
as ing
Ġin it
Ġb ar
ĠT H
Ġv ol
Ġup d
il t
3 5
ĠJ ust
ĠH er
Ġf ig
ight s
Ġst ri
id s
Ġs us
Ġ â
A l
y le
Ġab s
Ġp ack
Ġan im
Ġp ain
et er
Ġ ]
se c
o ff
ĠJ an
ad es
Ġm ot
a pt
pl es
c le
Ġl o
Ġit em
om b
am er
s u
Ġc al
i res
00 00
I D
A M
O T
c he
S o
ate g
or g
ĠH is
Ġd om
Ġup on
il i
Ġcom ing
ĠB ar
re l
end s
c ial
6 4
ra p
y r
7 5
Ġg en
Ġwe ap
r ay
am ed
b l
H ow
ĠS m
r is
Ġp age
ĠP er
ĠA g
ĠS w
um e
Ġe p
iv il
Ġne g
ent al
Ġa p
iv al
! "
l im
Ġa ge
2 1
ĠA f
S h
Ġg un
ro ll
Ġ @
Ġwas n
Ġp ort
Ġr ate
Ġsa w
ic ro
al t
o ver
ud e
Ġp ie
ra el
Ġr ad
T o
ã ģ
n es
ĠA ust
a ul
ess ion
op h
Ġj o
l t
Ġin j
id ing
ĠS pe
Ġch all
ir m
Ġ2 2
st r
Ġh y
L E
ke y
at ur
l am
b it
ĠP ar
3 8
Ġj ud
re ct
ĠO ct
ĠI nt
ĠW ill
Ġd i
id ay
ist ic
ar ter
ĠE l
ur ch
o e
it le
Ġ2 8
ĠC he
Ġh ost
k y
om es
le x
on se
r an
4 4
) :
Ġc red
C l
Ġm at
O U
Ġ2 6
Ġtr ack
m a
Ġhe art
Ġb all
n a
s et
3 6
3 2
= "
Ġl ost
ĠM us
ĠP e
Ġpro p
Ã ©
Ġde ad
. '
O S
y l
Ġst ay
s er
Ġc ard
Ġc and
Ġd iv
O M
us es
g ing
3 9
ĠG l
ap an
o or
it er
ĠK ing
ll ing
Ġ2 7
3 4
ĠW est
is es
Ġre ve
Ġfor ce
c ast
f l
ce ed
Ġa ud
Ġre v
0 5
Ġhe ld
ct or
3 7
u k
P h
u el
ct ions
ĠC our
ĠN ow
z e
it es
Ġl ate
n ers
ar i
ĠC or
Ġp red
B C
ĠB y
os ing
Ġor d
h am
le ge
E T
le v
es e
ĠS ome
Ġp ers
s p
ou d
4 8
m it
A d
re m
et h
6 6
ay er
Ġf em
un t
er c
ur d
Ġ ill
ĠB ro
Ġ2 9
Ġs qu
Ġex am
l in
5 5
n ed
Ġt ou
al se
u x
Ġsh ot
op s
e es
ĠM ich
im um
pp er
ore s
ou l
Ġd en
Ġb ill
c il
4 7
Ġex c
ad d
Ġwor th
b or
re et
ĠI I
Ġst e
in o
her n
A D
Ġto ol
ĠM on
T r
a ur
ĠE ar
Ġc e
ĠC ong
Ġcom ment
ain t
il es
0 8
4 9
Ġgo es
i j
ĠS er
0 9
d e
ĠD es
U S
o ice
E C
ĠM ag
en ed
ĠP ost
N o
A t
un k
Ġ ur
Ġl ed
c ome
e y
et y
P ro
ill ed
A P
l ight
he l
y pe
Ġhe ard
Ġm is
ĠS an
The y
v il
6 5
0 7
0 2
ĠA M
Ġare as
op e
a el
Ġs n
i ant
z z
m m
al ed
0 4
Ġh ot
Ġwho se
Ġsu ff
o es
Ġh on
r im
ag ing
R e
Ġl at
ch ie
is l
u f
Ġf ast
e ch
Ġo il
ĠS ch
Ġgo al
Ġcon v
1 00
em y
L L
0 3
Ġc y
Ġh or
b ed
et t
ide red
Ġl ack
Ġw ide
Ġm id
h a
Ġd ig
en ing
Ġd ro
C on
6 8
se qu
E x
ak er
Ġp en
U n
ĠP M
L e
ĠM ore
Ġd ate
c ul
id ge
3 1
Ġs le
6 7
j ust
ch an
m p
om s
W ith
t ain
ly ing
A r
ar ies
ĠD is
ĠN e
c ies
Ġre pe
ĠP al
ĠI S
Ġb i
i ers
ĠS im
O P
in ing
ĠT V
r ain
he t
ĠU p
ĠP at
Ġ ess
g es
ect ion
an i
ro l
ĠO f
! !
rou p
A ll
le ar
ĠO ff
ĠThe n
ra z
ĠB o
Ġf ear
Ġa w
or ing
' ,
ar r
n et
am ent
ĠI N
5 9
ir it
Ġn ation
is ions
n y
Ġhe ar
ro y
in ally
Ġdo g
Ġf ans
Ġs ort
ic ation
ĠW ed
ar a
ve y
Ġt al
Ġs en
0 6
Ġs il
un ch
Ġu nd
f ort
7 7
ur t
Ġ ver
ĠH ill
Ġs at
ir th
ĠH igh
Ġp le
ĠS oc
S he
Ġc ast
S c
Ġpl ans
ll ed
Ġw all
om p
k ing
5 8
o ly
Ġs on
ok es
ĠJ ew
as c
ĠK ore
om ing
Ġ ut
6 9
Ġon es
ĠM et
Ġde g
C H
al y
ĠM od
Ġre b
ĠS am
( )
Ġdo or
Ġne igh
Ġp an
ir ing
ap ter
ĠN et
Ġal one
d om
Ġr out
Ġr ac
res h
p ri
ĠS l
iv ity
8 8
ĠM or
Ġwe ight
k en
Ġnot e
Ġ \
on ent
Ġl ic
ast ic
Ġt en
ĠU K
B I
ĠA P
Ġh om
Ġst ar
ac her
g est
Ġs ong
ĠG et
ĠL ab
us ing
r ight
ut ions
4 6
Ġin n
I G
er o
Ġst ra
O L
ag er
ĠA N
I A
en ge
in y
I m
? ?
m ore
Ġan g
5 7
< /
est s
4 3
ĠS T
a res
ĠR om
Ġ 00
ĠF rom
op er
âĢ ¢
ate ver
Ġare n
ĠD ay
Ġb ud
n ew
a e
Ġsa ve
p en
ow ers
ĠJ ack
E M
Ġn ice
Ġg as
Ġe ight
ic it
B l
he st
or ge
P l
Ġst ore
Ġb al
m en
Ġdo ll
ĠS k
Ġs al
M y
n ame
N ot
om en
Ġse ll
ear ch
im ent
4 2
ur g
ĠE ast
Ġv s
ig r
. [
7 8
F L
E L
ĠA ir
an ch
P S
ic ed
: :
ic o
ĠB re
7 9
am ing
O D
in n
Ġf ine
Ġf at
ĠA nt
st on
and om
Ġg one
i us
id a
i pe
Ġs end
er ve
Ġy es
ra q
os h
ĠP re
Ġtr ust
ag s
ĠG ame
um an
ĠC le
it ation
- >
ent y
N ew
I s
Ġc at
es c
Ġst age
ĠO ut
r s
m ine
ĠT er
ĠO ther
b an
ro om
I V
ĠS un
se e
ĠO ver
ro g
9 0
Ġl ay
ĠT ur
ed om
ĠS and
A A
ag o
U T
N ow
ce ll
n ight
in ter
ĠJ e
G et
B e
R A
ĠC r
9 5
p re
Ġl if
Ġgo ld
Ġs om
ĠK e
ant ly
m ar
ro id
a ud
B y
ing er
4 1
il ed
b and
Â Ń
p art
O W
ĠL et
n o
i ation
a ith
il ies
ur ation
ab y
ĠB en
ut y
h ol
Ġm ill
ĠB ill
ĠB el
ĠO ur
I M
Ġb an
ĠO F
ĠO h
ic a
Ġh ar
y a
i pp
Ġm ap
I I
ak ers
5 6
ĠM art
ĠR em
D on
Ġwe b
Ġst o
Ġb ed
ĠR ich
Ġp un
Ġme ant
Ġnot ice
) )
ĠA c
un es
Ġm er
Ġm ist
ĠU s
ĠT or
ol f
m l
Ġa im
, '
c ol
ĠM ost
5 4
Ġt rou
5 00
I P
p ir
Ġ %
and er
] .
ri age
9 8
S A
ac ing
C C
Ġr ap
Ġb and
e at
ĠM ac
ist an
am s
k i
as y
ra v
ve re
y an
Ġbe g
s pe
ant ed
ear s
am b
ac c
if ul
Ġth us
I L
od es
Ġwh om
id ers
ol ic
Ġt ro
m et
st e
Ġ ir
C T
i i
um n
ud d
ĠT om
qu e
b on
Ġha ir
Ġp us
Ġf it
ĠS ur
¿ ½
Ġt our
o om
> >
ĠD el
ĠP C
T H
v est
it z
Ġr at
Ġ il
ĠJ er
ĠA re
ok en
us ion
ĠS il
t w
as ion
Ġn or
u ing
Ġs un
U R
all ed
ot a
i os
ĠM o
al ing
Ġp et
Ġ( @
t ies
Ġhe ro
ĠS ol
S P
7 6
ĠD ist
5 2
5 3
ĠB er
ol es
ĠE v
Ġt end
Ġs pl
ak ed
Ġf an
or ter
B A
ĠH am
ĠP ort
od ay
5 1
h t
ter m
ac ity
Ġb ur
] ,
r ig
b ut
res p
re y
S ome
Ġnot ed
r d
oc al
Ġw at
il ing
ĠP ri
se y
ver se
ĠL ight
im al
ĠB ig
Ġbe at
% )
he m
ing ly
w ide
Ġsh ut
ĠC ur
p m
Ġst ation
ĠM al
b um
i as
i h
on a
ri al
' .
ĠM il
Ġg ain
B S
ĠF in
y p
is f
el ine
d ate
ĠC ap
w ith
Ġe at
ri an
il s
Ġv ill
m or
z a
O C
Q u
ill ing
Ġtr ain
Ġn om
Ġm ut
v ant
8 6
ĠI D
7 4
ĠR E
l i
8 9
ad o
N A
P A
a it
ĠE p
Ġe th
ĠF ore
in ate
S p
g ar
os ure
ĠE U
G B
ad ow
ĠL ast
Ġd er
g n
ast e
ack s
ad y
d o
Ġ `
l ig
ic y
in ct
ĠD et
Ġpl ant
b ing
ĠM ad
Ġt im
os es
Ġm ur
ĠM er
Ġd ed
u ke
S e
Ġd ie
ag n
our s
I R
ill er
m od
oc ol
u y
A pp
b re
Ġwill ing
l or
Ġ id
ĠL a
T S
ĠB ay
est ic
ĠT re
v is
Ġnot es
The se
ul a
ent ed
ed y
ĠR el
E O
ĠB it
ĠU N
Ġse qu
ak s
ur ies
ar ant
g l
ic on
ul f
Ġc ore
ĠT ra
A G
7 2
ad a
ĠP et
ĠL ou
Ġ ice
h ost
ĠD iv
u ct
Ġwor se
ĠH all
7 3
Ġh us
A Y
ĠJ ud
igh ter
z en
ĠJ es
P R
Ġb ul
Ġ _
ĠP R
ff ect
Ġd at
ab or
T C
A b
is her
E n
Ġn one
9 6
ĠF re
ĠS al
F C
t op
e qu
F rom
l ist
7 1
r ate
t es
+ +
ow l
ĠC all
ac he
Ġhe at
{ "
Ġg e
ĠM P
~ ~
g a
ant a
k a
h ow
ide os
pp ort
U p
Ġwe ak
ĠM em
" )
U N
or age
y m
ro s
n el
R es
Ġr an
ad ing
u ate
ĠR et
h and
ot al
D e
ĠW all
â ĸ
u it
as ure
Ġme re
Ġs em
ĠG al
ul es
Ġwe l
l a
ri e
f e
ul ate
oc ation
od ies
ĠT im
ill a
ĠH el
ĠS qu
ĠS um
and on
I F
ĠU k
6 3
ad er
es h
T w
od d
em ies
ot i
C L
ã Ģ
Ġf le
P U
ant ic
Ġf ant
k in
ar p
ĠI d
O ur
M an
as p
or ial
et ic
Ġk id
r un
Ġ !
ĠB et
i ot
g ment
ĠB ack
ĠA T
g u
ĠL in
M ore
c an
ĠC ard
y d
ĠC at
h at
ĠA v
om an
ĠW il
S E
O f
ot ed
Ġtr ig
Ġn ine
Â ¯
k es
D o
ĠG en
C ol
st ate
C E
ĠA ut
em s
os en
g en
6 2
ĠD am
M r
G o
S pe
r ant
ĠE r
D S
Ġt it
ĠN ight
d it
ĠE nd
out s
y th
ce l
ri er
and a
ic ide
ad ed
Ġwor st
Y es
Ġ ~
ĠJ o
h i
re al
Ġf ra
M e
ĠK h
em ic
I nt
" >
el ess
x x
ĠR ad
il er
ur a
8 5
6 1
ĠThe ir
Ġs an
ic ate
ĠS et
Ġ ing
it a
Ġb on
g ers
m as
Ġs ac
in i
o ch
i at
N ame
C om
t ion
ed s
Ġt ight
ĠT O
Ġd im
ĠJ im
ĠL os
w in
ĠN or
Ġse a
re f
ack ing
x y
S S
l o
T R
ĠF e
Ġh ate
w ing
ĠL at
ĠB ur
Ġg ar
ans ion
a o
ĠS n
rou d
Ġh un
I nd
ut s
} ,
Ġs ch
Ġf if
ig an
Ã Ĥ
Ġ è
Ġr ich
ri p
Ġ 01
at o
ĠD E
Ġpl us
Ġp il
th at
ĠR o
k ay
ĠH D
ĠS ing
O r
ĠH ist
Ġm ort
ĠD en
Ġre nt
T A
ar c
S u
9 7
is ation
ĠM el
Ġsu st
D A
Ġ ?
Ġth r
L C
ad s
f ig
ĠD un
id th
Ġg ay
M S
ap ers
b ar
ĠR un
th is
P C
am in
M A
Ġt on
r ast
ĠI r
all s
um s
ed er
J ust
8 4
ĠO ld
ol a
Ġv ir
it ect
ain e
Ġv an
Ġm ir
ĠD ou
ok ing
an o
ost on
Ã ĥ
ul s
Ġr id
L et
ra ve
P D
ĠU se
w ar
) (
Ġg od
ast s
8 7
F F
Ġat h
Ġfor g
ĠW he
s m
or a
M L
Ġwe ar
ĠD ri
O h
ap ed
ort ion
Ġhas n
ust er
ĠI ll
Ġk ing
9 4
ĠT em
ĠM os
ce an
y ou
ĠC ast
pt y
F P
A m
M od
U s
ut ers
ĠC re
is er
ĠT op
ĠA w
Ġse at
Ġ( "
Ġr ing
P M
ĠB us
ĠC H
ard en
Ġpro ve
ĠL ong
U M
O ver
art s
9 2
Ġp ure
ĠH un
end ment
n s
m o
Ġv ast
ĠM ur
ĠA R
es ome
ĠP ut
ĠC y
st ers
id el
O b
ur b
y e
ĠA p
Ġf ol
L ast
os is
D es
ĠP an
ĠJ on
Ġhe ll
] :
h ab
ol t
ĠJ ul
Ġd ial
ĠA D
ess or
Ġal t
P er
ĠH ome
rom e
8 3
Ġhe ight
as er
ĠS H
ac le
ab in
r c
ack ed
p g
ĠL u
Ġp it
ĠD i
ĠD an
re es
Ġh ol
ĠN one
ed d
Ġsu it
ll er
9 3
g ame
r id
gh an
ĠM en
ĠA ri
Ġf ill
Ġfor th
Ġs am
ĠH or
F O
al a
he red
b our
om a
V E
C an
Ġto w
c r
Ġbe er
ĠI P
ĠK n
Ġr is
k er
Ġc as
Ġsh op
Ġf ly
Ġb ag
Ġa id
qu est
N N
Ġs ke
ĠP ak
Ġm ine
S C
Ġme at
ĠO N
Ġ Ã
D r
ol ar
ost er
m un
3 00
ess ions
Ġyou th
ĠT est
ot ic
ol it
ly n
E W
Ġk it
ĠS P
Ġm ent
b ur
U L
A B
s en
ĠD C
in ity
am i
Ġt un
ge on
Ġfor t
Ġr ain
ĠS on
P ost
ul ed
om pl
ĠP ac
D P
on om
-- -
Ġt ack
Ġch ain
r ad
Ġp al
ro ad
ic ing
ist ed
om in
c s
E X
ur l
ĠS C
ĠO R
ĠW ay
ĠL and
d is
Ġc art
i est
he w
il it
O ther
ive red
A ct
ĠP ack
ĠF ort
£ ı
u a
9 1
ot es
er g
The n
Ġm al
e en
P e
st one
ol ve
ĠW al
ĠC ost
st s
p et
Ġs and
ĠB as
ĠC D
Ġcan n
Ġa st
8 2
am m
ĠH ol
ab b
Ġl ie
ĠC a
P L
ĠR ight
ld er
E E
ĠK im
Ġs ight
Ġs ad
l ong
f o
Ġw al
Ġsu c
ĠS her
ĠN ame
H T
ĠM ot
ĠO l
ok ed
ill y
ĠM at
â Ķ
Ã ¡
d en
L S
ap h
o en
ĠH P
ĠR on
ĠB at
Ġl it
ĠM S
Ġa f
H L
r um
j a
Ġr ide
ĠP S
ans as
ĠN Y
ear ing
s l
ic ial
H is
Ġv ac
8 1
ĠI ce
b el
ĠM a
ĠF our
ess ed
ch o
ing u
Ġwith d
O O
Ġn ut
ĠB est
ĠL o
ĠH y
ĠA ff
Ġcon ver
P re
ĠS S
u gh
F r
ĠD ie
f rom
M ay
ĠG un
et her
ĠH en
ĠF ar
Ġp in
m at
ĠO k
Ġc ro
al le
T e
us al
Ġal ive
l v
g ent
Ġsa v
ar ity
d a
pl ate
Ġint ent
P r
p an
Ġbe ar
it ial
T V
\ \
Ġm and
v a
or al
Ġre in
ĠS ar
Ġh at
m es
ĠR od
ow nt
c a
R el
b al
Ġh all
ers ion
ĠP ot
ĠL ine
ĠH ard
he nt
> <
ĠB all
Ġm o
M ost
or ation
if ies
ig g
ĠG M
ĠC op
ad el
ay ers
ĠH ot
c os
P G
ow ed
um er
n ic
Ġh ur
ĠM s
R S
Ġis ol
b a
4 00
ĠS at
ĠG ra
w est
ĠT y
Ġd u
el f
ig ure
g or
ĠA S
i ro
' '
ar l
ig ation
ĠF il
ad or
her s
ra id
if er
S er
s he
ut ation
ĠG all
t le
d r
Ġpl ot
R I
v in
ĠP ay
Y our
ĠE ll
ĠA C
k et
Ġg ro
ĠA ge
] [
Ġst im
Ī Ĵ
ut ch
Ġsh if
g un
d iv
ĠK en
ĠR en
ĠH T
E G
ĠH and
ĠG ar
ĠW in
ĠI re
Ġp ow
Ġp ed
ĠT al
le e
Ġ( $
Â °
Ġp ra
( "
k o
D E
f all
u pp
ĠM id
f ast
ĠF all
us er
C o
Ġse es
% .
um in
ĠC ore
ĠE nt
in ent
u ce
at us
ut ed
Ġb le
at i
S et
T P
a a
se ll
ĠC A
u an
Ġas ide
ĠU t
in er
l s
D is
B ack
ĠI T
Ġb es
j i
ĠH it
est ed
ĠO S
c ore
Ġan x
ĠC am
pl om
an es
et ers
ag an
Ġt all
Ġt or
al o
K E
end ers
U G
ĠL ist
al i
p ost
Ġsh o
A v
z y
ĠS ir
Ġl ies
st ar
Ġb at
ĠD ig
ĠC O
C he
Ġ Î
M P
ĠM ir
ĠK ir
I d
R C
H z
Ġt ab
n am
E d
8 00
F l
Ġsu p
Ġw est
Ġr u
ĠR am
os it
Ġv ent
end a
Ġr um
% ,
ĠL i
u h
Â ®
red it
ĠO K
: \
Ġpl ate
um a
ic an
ĠD ar
a os
ri a
Ġ( )
p o
ĠJ r
ĠP en
Ġsh it
ap se
c re
r ich
ate ll
ĠD ate
h us
Ġj u
ĠL ive
d ri
S m
ĠT ri
ĠR a
d f
et ch
an ing
ĠL im
ĠA z
ĠT R
ess age
ĠA ud
l ation
rou s
Ġv o
ist ent
or se
m al
Ġt ort
Ġt ag
Ġg ap
Ġe ast
ĠM ic
h an
j o
r ine
and al
Ġl i
ĠJ un
ĠW H
od ing
ĠT it
; ;
v y
ou ch
M ar
Ġall ies
ĠP o
Ġw age
p age
ri or
D R
F A
c ar
O G
ĠD id
Ġg ear
R ed
i y
in em
ke l
p se
ĠL ow
st al
Ġm el
ĠR ay
V al
ĠB ad
ro it
er m
v ar
ĠE X
N C
H A
Ġr ig
ac on
Ġh ide
ut en
Ġs in
Ġst one
Ġwhe el
all as
ast y
es ter
R L
P art
Ġf ab
ĠC L
ow ing
re p
Ġt ur
ĠP age
. -
ĠH as
Ġa x
\ "
Ġth in
ĠE qu
ĠA h
C S
Ġr ally
ĠC ome
ap es
Ġw ra
Ġv ice
Ġg ra
N et
ion e
it ar
ent h
ĠS E
Ġin qu
b ro
ĠG T
em on
O ut
Ġg all
ĠB on
ch ain
Ġst un
H S
c ers
p ack
ĠN O
Ħ ¢
ĠL ear
P ol
Ġpl ed
N S
Ġf ing
se x
ar on
X X
L ist
6 00
er r
D F
p at
ĠH om
im a
Ġm m
it ure
st ore
ĠP op
ab is
en a
l ers
the re
ĠG i
ag a
ak a
! )
s k
um es
C A
ĠD est
or ic
ĠP A
w an
Ġh ack
ou red
Ġh o
" ;
Ġj ur
ĠP ok
b ow
ak i
. ]
N e
B O
G u
i el
Ġt one
C O
y o
ed ing
ial s
c ow
Ġw ine
ut ies
ĠM u
ig er
ĠL ew
Ġch art
G E
il le
Ġre ar
ri ent
Ġb ra
Ġto x
00 1
Ġp ic
Ġst ab
ĠA st
f r
if le
ack et
U D
ĠR est
t a
u ine
Ġal ter
re c
? '
Ġm ac
ĠA L
ĠI V
ay ing
ĠN ic
ab et
or ce
ĠE D
r age
Ġf ro
ud es
Ġb id
if est
ĠD O
R em
p x
E ar
Ġex it
a ed
ĠB i
ĠJ ac
s es
ow a
j s
ust ed
n i
em an
ll a
ic ity
Ġt ies
e z
b i
A re
ĠT ro
ĠN on
y es
ol is
ĠB ul
ĠB al
Ġbut t
ie ce
Ġch at
Ġw ing
pt ions
os a
h op
ĠF red
Ġcon ce
N D
U P
A F
ð Ł
se a
in ch
o z
Ġl a
Ġc ig
ĠK at
as m
at ers
er a
im m
ri x
C D
Ġc os
ol en
in st
Ġb om
Ġpl ain
S L
G r
ent le
t ab
b at
ĠO p
t d
ĠE s
ĠE V
C P
ir a
Ġv en
a us
ak u
op t
ĠC R
ĠN ation
W ill
Ġor g
ĠF ant
ĠK ent
ri ke
G L
Ġk il
a ver
ĠM ain
as ant
G ame
ĠM A
ĠF R
1 01
ĠR and
ĠU r
b in
is p
op her
Ġm ad
on ly
Ġre ly
el and
ĠN C
ut ive
se ct
ĠO s
ĠH on
Ã Ń
W E
it i
r as
Ġre n
V P
z ed
h o
O V
S im
Ġh am
M I
K e
re qu
V D
m ap
v i
E P
d es
ch ant
ri ers
ĠW as
U E
h igh
Ġst ack
ĠS us
ab s
h ot
Ġst y
Ġg ate
Ġ1 01
em en
Ġc oc
Ĥ ¬
p a
ĠI M
Ġbe ll
c ut
" ]
Ġd ust
ast ed
ĠB a
em ed
u i
c us
od ed
ir y
our se
Ġcom ic
is an
im age
f ol
M on
ĠK ong
ĠH ay
Ġa ver
p y
ag ic
ĠA k
Ġv it
k ed
Ġan s
he im
d on
Ã ¶
Ġg am
z er
Ġp m
Ã ¼
ĠO ak
p ed
T op
Â ·
ĠL A
m d
E r
om y
B L
is a
ĠL ost
c est
M et
ĠJ ay
ap on
it em
ad i
Ġsh out
Ġn ic
ĠM ill
Ġw id
Ġbut ter
all ing
ast ing
ĠR us
on ic
Ġf ur
ig s
end ar
Ġth ro
c at
ect or
ent er
es y
Ġr om
ap ing
G A
t est
Ġb ab
ĠS ac
ĠP L
ĠA le
in th
d s
l ow
ig en
ĠC ro
T E
ĠP ur
âĢ Ĳ
ĠL y
es is
ĠM ap
ĠB E
H er
O ff
ĠT en
ĠP H
b n
ĠK ar
Ġc ust
Ġg if
m ic
ĠO pp
i ate
ut o
d ed
ĠH a
I O
im ore
oc ial
Ġse ed
is d
y ard
B r
C R
Ġg al
ĠC S
l ad
o il
ĠS M
en ess
M in
ĠT ok
at ar
ag g
ĠO nt
ĠP ers
ĠP y
j ar
Ġl in
Ġnot ion
f s
z ing
c ard
he ast
âĢ ĭ
E l
Ġr h
ĠH an
un ity
t ra
d em
pl us
ĠH o
Ġa er
ĠA I
Ġb ow
ĠA B
Ġp ill
Ġw et
er k
ĠF al
U C
im g
i ac
ab el
un a
ul se
l an
Ġse ar
ar re
ĠD er
ĠD a
ot ion
op en
M C
Ġst ro
ist ing
ĠD om
est y
ĠF A
if ice
st art
S H
ĠP ent
D C
Q L
ĠC ut
Ġl ad
ĠB ra
od ge
Ġt ut
ĠF ro
ĠB ow
ort ed
M c
ĠH ong
Ġe le
h our
C al
es p
w as
R et
Ġs id
Ġp p
ĠE ag
F T
Ġme al
Ġt ap
. --
m ate
, ,
ĠS D
Ġy e
Ġt ie
ĠB u
Ġre nd
ĠT our
y er
G l
am ine
O B
I B
h ar
Ġb in
Ġc ow
P age
ĠB L
7 00
d y
ur i
J o
ĠS ab
Ġint r
C ar
M ed
the y
Ġex ch
T Y
m ad
Ġe c
d b
c al
el ve
Ġd ad
ĠE th
Ġb one
ad ers
ĠF L
Ġcom pe
ĠJ am
ĠS om
ĠH op
ore t
th s
I E
ĠR os
k g
ĠF C
Ġf ate
h ist
Ġfor um
P ar
ig e
ig ate
ĠE st
ĠH ur
ĠC B
U I
Ġs ed
G e
? )
it o
il a
A V
Ġf t
ĠL as
nt il
M s
h as
pl ed
r ity
or i
Ġsh r
E m
Ġwe igh
ou ver
ist ant
ĠF ed
om ic
ol id
ar ation
v ard
ĠG L
Ġsh ame
x it
Ã ³
A K
it age
c d
Ġb ot
c or
he ld
ol s
H D
T F
Ä ģ
ĠB and
P P
w a
Ĩ Ĵ
at al
Ġm it
i pt
A g
Ġ å
ĠB an
u z
Ġh al
Ġl es
m n
ĠG ro
ou ri
ĠR ain
el a
S D
ä ¸
ĠS a
ag ers
ĠR h
ĠP ir
ĠP rom
ĠD u
ĠC ould
ĠG O
' :
Ġpro s
o pp
r at
ĠB ud
ĠM L
B ar
f il
ut ter
v ol
Ġdo ct
ĠH ide
ĠC ow
M en
h ard
I X
D ate
ĠC os
v an
S en
ge red
Ġcan ce
j ud
S w
T O
ag h
v ation
Ġt ong
ĠF ight
ĠL ic
ou p
g ate
g age
N G
ĠN in
il ation
Ġg est
U B
Ġm g
ĠO d
Ġg re
Ġv ig
Ġ æ
am an
F i
ĠD R
at re
Ġ ^
Ġd ies
et he
Ġas c
Ġk m
ĠF ive
w ill
Ġt ill
ĠR ome
ro t
ac o
C or
ain er
ĠM ess
ĠN E
Ġin her
er ies
ch ar
F S
Ġ q
ĠM D
le m
ard ed
at in
Ġint im
ĠG il
Ġm ice
M us
ĠT es
Ġst em
ot ing
l ay
ack er
ĠO x
ĠG ear
Ġdo se
M B
in f
al id
ab out
Ġf el
and y
G R
ĠM B
Ġto b
Ġc ir
ĠE ver
= -
n c
( '
ĠM ort
m ir
ĠB ol
el ing
Ġthe r
ch ing
Ġv end
Ġhe s
qu er
Ġnot ing
o ir
W he
ĠS ant
Ġc ul
g ly
ĠG R
Ġm os
z o
ol n
Ġde le
ĠS in
b us
igh th
ĠS ure
Ġj un
ĠN S
ĠK it
oc us
Ġle an
A h
F R
Q U
re nd
ĠL am
o is
ĠW ould
ĠS ong
pt on
Ġc um
ĠH im
ĠH at
R un
d i
im p
D B
ĠN a
v as
ok er
nd um
ĠH al
e an
R ight
Ã ¤
ke e
U se
Ġle ct
d am
ct ic
ĠB Y
ĠH um
m ers
Ġsa ke
ĠM as
ch i
op y
ĠR y
: "
th ur
Ġt ent
ol i
b u
Ġin ch
ĠK y
Ġg ri
S l
c ap
e le
ĠF un
\ /
f it
ĠH ad
L D
ĠD ur
ĠC ra
ĠB R
ĠH E
M ich
b et
G G
h ome
ect ed
ie v
. :
] ;
c m
oc a
Ġj e
o op
an im
G O
ab e
Ġst ir
D et
ĠP a
00 3
s ome
N T
re ll
ĠM om
ĠH u
m ay
st ic
Ġm art
ag en
ĠC as
m g
ĠP ast
ĠR ow
L Y
ak h
od a
st op
z one
ĠW R
ĠH art
ĠS N
pl ing
Ġs our
us ive
Ġf et
ĠS ent
Ġf er
O K
ra h
ĠT ed
s a
P E
ĠP ant
ag u
ĠA qu
w ich
ant om
ear ly
Ġr ice
r ust
ter y
B R
ĠO il
Ġ ..
Y et
ar u
am ac
t em
he art
Ġ( +
r ac
Ġf o
ĠM ine
D em
P al
' )
ĠT am
ĠN i
Ġw and
P T
Ġb ol
pl an
S I
P ut
ri ve
Ġha z
ul in
ok u
ĠK a
or ig
Ġworld s
id al
Ġt ear
Ġit er
m i
D id
ĠP u
p in
= '
Ġcon j
it ol
ap ore
ĠR u
th al
Ġf ed
F I
M E
oc ity
ch a
B en
ĠM it
} }
Ġp ist
he ro
ri el
b en
ay a
V A
ĠL es
ac er
é ¾
ĠR at
ĠN A
Ġfor b
il st
re r
Ġo h
/ .
ĠW i
M O
ĠD ak
s ur
pp ers
ĺ ħ
Ġt um
it is
ĠT an
Ġpro st
ĠP ear
h r
ĠB C
Ġd il
b b
ĠG ot
le ans
P ack
m em
ut er
ĠF O
P I
Ġth y
] ]
P H
ing e
H igh
ĠR T
es ity
l en
F il
w all
ore r
ĠT a
Ġne ur
ĠM E
ĠH ig
n ie
o ard
ĠG re
ĠN ut
ĠO w
ĠG h
à ¤
d ie
h s
in os
ar th
ud o
on ed
ĠF le
P s
Ġo x
ĠU b
ar o
it ate
Ġhe al
M M
ĠM ust
st ra
om er
ĠL ie
ment ed
Ġc m
ĠS ide
Ġout er
im s
d ing
ĠT el
b as
, -
O H
ĠM un
h y
ĠE b
J an
P at
ĠF ig
ĠW ard
iv a
ĠE T
all ow
N E
o a
ul k
Ġc am
ĠA x
ĠB or
B el
. (
Ġout s
ro c
s ing
Ġhas h
âĢ ³
ĠW at
? !
and ed
f ly
B M
ĠK ill
z es
p es
Ġp ir
ĠR ap
A W
ĠG ab
ĠF at
u u
S M
ie ve
Ġm ic
ur se
Ġo w
h h
ĠA F
od er
ac re
ĠD al
O ct
Ġd a
d el
Ġn a
D ay
g i
ĠB ab
@ @
Ġw ore
Ġr ic
m ain
W H
ĠS L
Ġm as
ant e
C re
ĠS em
en ame
ĠU I
ol as
ĠD ra
ĠI C
f i
Ġ Ð
B E
on ing
w he
e u
Ġg ut
Ġst er
ĠL E
ist a
Ġall y
Ġg ig
ĠD or
Ġas h
ist le
f un
ĠF ast
ĠK u
S R
Ġwh is
S U
ĠR ing
i ar
Ġd un
l ive
ĠJ u
ud ge
b ie
ĠL en
um ing
ĠB B
ri k
ĠK al
Ġan ch
H el
ĠC C
ĠT her
b es
h ill
ac ent
Ġj et
n an
Ã ±
om ed
Ġwor n
ĠK am
ĠS W
B re
en c
ap or
ĠP il
Ġy ard
ĠJ ess
Ġj ew
k ill
d ll
Ġde ce
M D
om i
ag ine
he ll
ĠN ich
ĠA ve
r in
Ġv oc
Ġt u
Ġh ill
ĠG ard
Ġc ort
Ġp our
B ig
N Y
s an
ur red
ĠS O
ll y
Ġ" /
ĠG ate
ĠB ir
ĠR s
ĠG a
ap y
ĠF if
A c
ä º
V I
ĠL ad
9 00
ut her
Ġo k
Ġ" [
ĠF er
ĠE ve
H and
Ġor al
ĠW E
J P
ĠL ess
d ig
th a
ĠP el
Ã Ĺ
ra it
E nd
Ø §
p op
ff ff
ĠI an
ou b
l ast
ĠW y
] )
ĠE N
T em
Ġp ig
Ġp y
od s
ĠG ill
t ag
c f
um i
ĠD J
B est
V R
v o
Ġle ak
B et
im ir
p ot
S um
ĠM O
ĠH ans
Ġb ust
ĠA G
le an
Å į
n or
M er
ard o
ĠM C
ĠO pt
ĠG B
B it
P N
M art
ĠT s
r ide
c p
n on
t or
ĠB art
ĠE C
ĠF B
out e
W ar
o j
A nt
) -
ĠS ak
ie re
R O
is en
qu al
f ive
un s
k m
qu es
Ġpro l
Ġf ut
ĠM and
ĠT D
ul pt
Ġ ç
f a
ĠF u
ĠS pl
c all
ĠO P
ĠJ en
Ġat he
ĠT E
oc ate
t ic
Ġto y
C op
ĠE S
M ain
s i
ĠW ing
[ /
V er
h u
os er
Ġt ar
s is
ac ies
M ag
ĠP ed
Ġn in
b est
G od
ra pe
el le
e or
ard ing
Ġl one
Ġwas h
ĠW W
l ies
g al
L A
Ġ" "
ĠR oc
ĠA th
ic ut
. _
ĠS U
is y
on z
ĠG er
ĠF ly
M em
ĠF ac
H ar
Ġto ll
ĠN ar
ol k
M R
m id
Ġre ct
ol er
et ing
est one
Ġt el
art z
b ot
pe red
ust ers
g t
out ing
Ġj er
Ġde ar
! '
ĠK r
ĠC art
ro se
$ $
ĠA y
ĠP in
C ost
ĠN ig
oc y
ed i
G en
H ist
M T
ĠM i
Ġn it
e em
ĠI l
å ¤
ĠG ive
T om
ĠJ a
ĠE R
ĠU nd
ll ers
Ġr ou
E p
iv an
Ġse al
u um
ĠS ay
m art
ĠR ice
Ġbe ast
ig a
Ġpro c
ĠF an
Ġ( -
Ġm s
D el
ĠM ut
Ù Ħ
b age
Ġg ly
ĠR ou
j an
p ing
ĠH us
S em
ro x
H E
is ive
M ap
C r
op es
P ort
w ear
um m
ĠT un
ĠF el
S y
¥ ŀ
L ine
at on
oc c
ect ive
q l
" ?
Ġsh ar
ĠR C
ĠP i
Ġc ure
ĠE c
ĠG am
al g
id en
ig o
Ġf u
ĠD im
l r
C ore
ol o
Ã ¨
b id
ct ive
: /
H P
pp y
im b
y our
ĠT ar
ĠP ow
ll or
C all
ĠM is
ing ing
M ac
Ġ ic
ot os
R T
ĠP ap
Ġp a
ĠT ig
st an
h al
N one
ĠK B
Ġth ou
Ġk g
S ur
on ge
ot ation
p ur
ir k
ic he
ĠF ab
A E
i w
st age
ĠK an
v s
b ig
st at
ĠS K
J ack
F e
G S
ĠP red
s im
M W
ĠN ap
Ġv ag
f our
ĠP D
ĠG as
ĠA W
Ġ ×
ĠS F
h is
Ġn u
Ġst d
ment ation
ol ver
ĠN at
j u
ight y
T est
Ġr age
al in
p i
ĠU C
ĠD oc
Ġhe ter
ul um
ol ine
et e
l ie
on er
ĠC u
our ge
ĠH ost
Ġj ack
ĠC I
g on
B D
ĠL ions
E nt
g s
ĠG A
ĠB os
D am
ĠB ou
ĠH A
ie ge
pl ess
The ir
Ġcom ed
ri pp
Ġint u
Ġa est
L ong
res a
us r
k h
ĠI L
on i
ĠA V
m us
ĠH end
ĠS ad
Ġl un
[ "
ĠG P
ur u
ĠS A
ant o
ĠE P
) |
ĠL an
ĠB ear
p c
am ation
v m
Ġint end
ĠD I
ĠK or
ĠK l
L a
b ad
Ġl ap
ir i
et c
Ġpro x
u v
= >
ĠR ate
Ġ( (
th an
am y
ĠS ud
e ff
T ri
ĠI R
u ity
Ġa qu
Ġp ad
ĠD M
Ġt ast
Ġu l
em in
R ich
Ġc od
S ch
I Z
ro d
ed ge
i op
n ut
r us
Ġsa il
ĠM es
C ity
ĠP un
L ear
T im
z b
Ġab ol
t v
Â £
F ig
T L
ab il
L in
ion ed
l on
in it
her ic
S an
M al
ĠK as
U K
ap i
W est
L ight
Ġne at
ure r
Ġs her
pl ant
ĠC ou
Ġat e
b ul
o at
ĠM ist
ĠP ic
S il
. ;
( {
ate ur
ĠL ot
ri v
ĠR O
F E
or us
ut ing
ost ic
F our
ĠK el
ĠG it
a is
T er
A ust
ce ive
Ð ¾
ĠH R
ĠL oc
Ġf art
Ġsh ore
ĠN ag
B B
E v
z an
ation ally
ĠN ort
/ *
ĠL ion
ĠC el
d et
B ay
N O
ul ent
Ġf est
ir ation
ĠS el
Ġw ard
ut t
ĠT X
ĠW a
ud a
ri en
Ġch rom
ĠJ ar
d oc
ed ed
Ġre un
Ġa pt
ĠA ur
k n
N on
ĠS or
Ġc it
) ]
w er
R o
l at
as a
op ard
f ight
ĠG N
Ġb ay
ak y
ab a
` `
il ight
ew s
ll i
ĠC and
B as
ed u
ur ate
W A
p it
R ad
G M
Ġfor k
S N
u er
p ay
Ġbe am
ĠB ed
ĠA ld
C ap
Ġab ort
ĠH em
ĠP ain
b c
he nd
ĠW r
p ad
ĠS i
ĠL ore
f in
Ġd ive
Ġo z
our t
ĠG em
Ġc ra
ĠS id
c end
ie g
K ing
Ġn an
h ou
ul u
T ra
P an
S k
ĠP ad
T T
ro ot
B N
Ġor b
Ġr am
ĠA er
B ro
Ġse am
ĠM I
ĠC it
Ġtr im
Ġsh y
ĠT ak
c ost
k it
op ing
S O
ĠA K
Ġp se
ĠM ak
V is
Ġp ant
ĠR ic
o ak
us ions
T or
. *
| |
se en
ĠH i
d ir
/ >
G C
and ra
V C
ĠA A
â Ĺ
" "
k ers
Ġse ct
ĠU P
Ġs ir
T M
ĠC ab
re ed
ĠK le
ĠE le
ĠD od
an as
b one
V M
S un
ĠG ay
l iv
ok o
H C
b ra
H ome
f c
ĠD at
Ġo un
p ol
ill o
i u
Ġf ame
ĠF ear
Ġm ate
ĠR ew
Ð °
] (
ĠW ant
A ir
ew ay
ot ine
Ã §
Ġp el
s n
= (
oc ide
* /
Ġc ab
m ans
Â ©
it ic
ĠD ust
us c
un ct
or ate
Ġ é
Â §
Ġd in
B us
ĠS end
Ġo d
or p
S am
Y S
ĠU l
/ -
Ġsu ed
in v
ĠL il
Ġn est
f d
s um
F ore
A ud
ĠC T
f ar
ĠW A
P O
E A
Ġhe d
o os
Ġb od
ĠN ine
ac s
ear th
D D
Ġle ap
ĠC M
on ut
iv ic
s qu
am on
ĠP and
ĠB O
S n
ĠF am
t im
d est
or o
A ut
ĠO m
ay ed
en h
Ġab st
Ġan k
p ic
Ġbe ans
b art
os ity
ĠB h
ich i
ĠW or
V ol
K K
op ic
Ġd ot
ol an
ĠM all
ul ing
% %
G N
M o
pp o
B o
ĠM ack
W in
ĠK in
ic er
ff e
in is
ab ul
Ġto m
ke es
U r
ĠK ate
g re
om on
s ay
) "
O s
ĠT u
m t
( $
ĠS ame
Ġp iv
H H
C ome
w al
m os
< <
Ġbe ers
ĠS R
ve t
S B
ĠC ant
ĠK id
Ġg em
Ð µ
Ġj am
ĠT on
Ġhe m
ĠI F
ĠT ap
Ġin k
ĠP it
ig nt
Ġr all
ĠT ab
ort al
om as
v id
p ent
ĠC P
ant le
ĠT i
G P
ĠH ud
C ard
p rom
Ġp or
W as
ĠI v
P op
J ul
Ġg ard
w d
Ġr ust
Ġbe es
ch at
Ġm im
he ight
' ;
z i
r t
ig ion
p her
h um
ĠD A
as i
ir s
ad in
d ist
ant i
ĠA ce
ĠR ust
Ġle ver
ĠP ure
Ġwhe at
Ġn er
Ġb ent
ke ll
et a
ĠB le
r h
H R
Ġc age
Ġhe y
ar se
t m
F X
ig m
ĠE M
e h
ĠM R
Ġme g
H i
Ġm a
ĠT C
Ġm ast
ĠJ in
on ies
id o
ĠT W
H ard
æ ľ
ĠM age
ab ad
ĠK er
W ould
ĠK ay
è ¦
f at
ĠL G
Ġm all
Ġj ar
Î ±
z el
ĠD S
\ .
ok a
, [
ĠD ad
ĠC er
ĠR ud
Ġ( #
ĠK on
er red
ĠP od
as ive
ĠP as
b d
pt ic
Ġs ab
ĠB ak
ĠT ag
Ġp ul
âĢ ²
T ur
am as
Ġm ud
os c
it us
G H
B Y
ĠB ast
st ation
Ġ Ø
ĠG ore
ĠL O
A f
ould er
t x
Ġn ort
Ġg it
ĠM Y
ĠK o
l ate
Y ear
m el
ing le
ar in
ra k
Ġl iv
s ers
us p
ĠG and
Â »
ĠN y
å ħ
al one
as is
el se
ag ain
ur as
Ġha un
Ġch a
Ġv ine
B ill
m ill
[ '
L ab
ĠE L
ĠF ine
ĠN am
c in
S W
ĠT ill
H it
d c
h or
om o
Ġthe e
ĠE t
Ġhe x
" [
ab i
ĠR A
D I
H ost
h it
l oc
W W
ĠO ri
ĠM ol
ĠJ ong
Ġd ice
Ġ" $
am el
ĠR B
us k
â Ļ
id ity
ĠM ul
å £
00 01
ĠN an
ag i
j e
ĠO z
ĠW u
Ġn il
Ġv on
om al
J im
ĠS B
est a
Ġcan on
ĠP le
ĠH S
Ġ Ï
ed a
ĠE ight
ut ic
ro le
h ad
" (
am ic
ĠK ur
ac ial
Ġb er
if ter
ul er
all ic
Ġch im
e a
Ġn ost
s il
re v
J on
Ġb out
D O
ok i
^ ^
ĠI Q
l it
O p
Â ´
pe at
U t
R Y
ĠH ack
er ie
g it
p res
ĠL l
ĠL ate
h all
Ġsh ine
ine a
b t
ĠL um
ĠF a
w r
Ġl b
ĠP v
ĠF F
us ers
ĠC ort
ĠM ong
A H
Ń Ķ
Ġe ld
os ion
el ed
a ic
M ad
Ġl ing
ĠN ice
F in
ĠP E
ĠL P
S and
} {
ĠR ot
et on
ĠG y
ĠC oc
er ver
w s
ĠG n
h l
il o
Ġu pt
out ed
Ġc ant
ĠC F
ir ies
W R
ĠP os
ĠB ot
ĠM ans
j in
p al
Ġm ol
Ġf ist
ĠW es
s ight
ĠF E
Ġb ore
ĠM t
it an
h art
C ong
ed e
ro v
Ġn od
ĠP ist
ĠC E
D i
O k
I K
ĠF M
ok ers
en es
ĠC od
ĠO H
Ġc el
Ġa ide
ĠN J
end or
Ġl ion
Ġst ain
l n
Ġthe or
Ġv ide
Ġd ent
ç Ķ
st ant
ll o
am o
S K
P o
un al
Ġm es
P ac
Ð ¸
im ity
the m
em pl
ĠF ame
t ar
G I
ĠL ay
ĠK os
ine z
v oc
Ġl en
Ġc u
Ġ Ù
ĠF I
in qu
3 01
um ed
L ive
ĠS ter
Ġint ro
Ġa in
Ä «
es ar
Ġk in
ot on
ld a
im ation
ver b
ĠJ et
ç ļ
im en
T ok
M at
he res
f ed
C ent
ĠL t
ĠG or
Ġne o
w ed
art ed
ĠD w
est on
g om
ĠH our
Ġr ack
on est
ot ive
st ud
ri ans
s un
ĠK um
ri um
ar an
y on
w ould
P ay
Ġ( '
c ity
ĠE ld
if a
or um
S al
O F
H as
C ast
ĠU T
or ie
D L
em et
ĠK end
al ion
p ers
v l
st d
ud ed
ĠC her
ĠD j
ĠM T
ĠP T
ed it
B T
Ġo ct
Ġpl un
id y
Ġh ast
ĠR S
Ġth igh
ag le
ĠG U
L im
- '
ĠD X
Ġb end
ir us
) \
W S
ĠF en
) ?
ĠF o
ĠF T
R est
S ure
op ed
ĠS ke
Ġl ol
à ¨
Ġl ag
en z
ĠF ri
ĠS le
B U
f re
( (
D ig
un c
ĠG ig
ä ½
Ġl od
- +
Ġth ri
s ure
ĠF X
ust ain
ot er
G T
à ¸
. /
R ay
Ġs ore
e pt
d at
O ld
} ;
W ant
Ġpl ag
Ġo v
Ġup s
j ack
ĠH ab
Ġs r
Ġs igh
E U
em a
an ity
ĠS Y
m ag
ĠL ith
Ġa rom
ĠO t
Ġv est
on gh
ĠP ill
Ġt in
Ġl id
Ġp and
ĠE A
c od
id i
V ar
Ġs q
W ed
as ers
b f
ĠK il
c ro
ard on
Ġb ast
ĠP O
L P
p u
ĠL un
) {
ce ans
w ent
Ġg n
g ard
u art
Ġt ide
ä »
ĠE ther
F ive
R P
r ar
le en
M or
ä ¹
pl er
ĠT ol
th y
ar is
ĠB I
Ġb ans
Ġan at
h in
um en
ĠD D
h un
Ġde er
ĠC e
op l
E V
J S
ĠB ag
ĠD B
ĠP or
ĠG C
Ġat op
Ġp ine
ĠN ear
Ġint est
A I
r ill
ers ed
ter ing
ur ally
S at
Ġr im
t i
Ġ( .
D ear
Ġd y
ar us
Ġcon qu
ac ist
st rom
m ac
e i
V S
v d
Å «
c pp
ĠT ot
ĠF ate
he y
D ist
c ill
Ġwe ed
j l
F re
Ñ Ĥ
ĠD ame
Ġg el
ot he
q a
ĠB om
C y
ĠB ent
Ġv ic
ĠM end
ĠR F
ĠW ine
Ġp ap
ĠF ew
n n
im on
M G
b m
ant ing
Ġt a
Ġch ill
ĠC ad
P y
' ]
ack le
ĠD h
L ow
in el
id ate
Ġwh it
ĠS V
ĠM K
D ri
ĠB U
ĠB our
s ch
Ġc ad
Ġl ur
ĠL em
is ure
Ġd b
op ers
B ot
ro e
an ut
st ro
" }
al ine
Ġcom r
) /
B on
pt r
Ġbe e
im us
se in
ĠM H
y t
Ġd od
ĠR d
is se
Ġ( *
f ill
Ġst ew
S F
ou g
ĠM M
K it
ĠB in
ant is
d id
ĠS ans
un it
B P
v or
Ġw it
ĠS ri
Ġsu e
u o
ĠG ri
Ġv om
is le
/ ?
ĠG ad
un n
f u
01 0
ot or
Ġu b
r ice
ff f
âĢ ĳ
c am
- ,
on al
ĠB P
å ı
ĠL ag
w en
T D
ĠE z
ĠU m
ĠW end
ĠD ro
ĠK O
r r
he e
k ar
ĠL if
Ġl ou
ĠP P
ĠI b
ir al
R R
c b
M el
re z
qu et
h n
Ġre im
ĠP ra
ĠS it
Ġsh red
Ñ Ģ
D an
g ow
Ġto e
ĠN om
y ers
Z E
Ġbe ard
ĠR ut
- "
H y
ĠT M
ĠC ir
Ã ¦
ri ad
ļ é
in ers
g one
ĠD ial
s end
H am
s d
n l
g d
D en
at um
ĠW ag
v ity
ĠJ P
Ġy a
H ot
Ã º
n is
s v
f x
ĠH ag
Ġc her
s ic
ess a
O Y
it as
ol ation
ĠN est
F ar
ĠG in
ol ith
b ag
M a
re a
ch t
I ll
Ġu h
w age
Ġg y
om ers
Ġt il
Ġm i
re x
n m
el ong
Ġse as
ĠK ra
ĠE y
is ers
00 2
P os
as se
er ate
ĠP ul
Ġ iv
ĠB ing
he a
w o
ĠR ide
ĠR age
ĠT A
pt ive
Ġon ion
ĠO T
s al
l ar
ĠG ain
ess ment
ĠP ie
C am
ĠK ot
os i
est ial
G F
ĠS r
ĠB one
ill es
Ñ ģ
ĠN u
[ ]
? ,
p ie
R a
w y
ĠN er
ĠP ew
our ing
re on
k t
ĠD ow
4 01
Ġex h
f b
N F
ent e
ĠN ad
od us
et r
Ġt am
W al
: -
qu in
ve red
l as
F ort
ĠK i
Ġg ast
Ġpl ac
ĠJ as
ĠN W
m ut
C at
L O
ĠS ig
N or
p n
ans om
an ol
W ow
s pl
c ur
Ġtheir s
ĠA j
ĠU V
Ġat om
in ar
n ant
L ess
us a
B ad
pe g
Ġ ion
Ġl end
om ore
W M
N I
el o
ĠT rou
c op
ĠW o
Ð ½
N P
f n
Ġne ut
ou x
ĠL B
ĠB T
ĠA id
ĠL C
if i
] =
m and
ĠN ak
ĠO L
ac a
S qu
ĠW el
Ġl ust
d ro
J es
g b
ie u
ĠG E
W il
K O
> ,
W D
Ġd op
L and
Ġl os
E Y
Ġk et
E st
Ġd ur
r il
ĠF ur
J un
ic ans
W all
Ġl y
ĠW and
ĠO re
Ġle ar
ĠK N
F an
ad os
ard i
C F
n um
Â ±
å ®
Ġch in
00 5
ĠN em
Ġst all
y y
r ag
ĠJ os
ut il
M ill
ro b
M id
G ate
ĠI X
g as
Ù Ĭ
w ic
ĠK un
ĠT all
c ig
o qu
g ie
ĠS ed
im er
\ )
T B
an ed
g ay
æ Ī
Ġ( !
K B
ĠN as
ĠJ ill
A Z
S ir
ĠT ut
- $
Ġpl um
Ġo ri
ĠH od
- |
R om
st re
! ?
ĠS ou
ra ud
ĠD ot
t z
ĠN L
â ķ
å °
Ġre he
ĠT in
00 4
Ġp H
Ġc d
ay an
Ã ¢
m ith
_ -
ĠL ed
F ast
B ur
G un
o i
b ard
ant on
ill on
E s
t c
end ant
ĠN R
S Y
k u
ĠR an
ĠP ine
ĠP ig
ans on
Ġh i
n one
ĠL ac
ab l
J ew
Ġto pp
D M
od i
Â ½
Ġle v
A w
l b
ag in
Ġha w
C B
ĠG an
m c
ĠR id
ĠF i
Ġp g
en ment
ac et
F M
V s
is i
Ġv ow
e on
B i
H a
Ġnot or
ĠW on
e ast
G ive
ĠF S
İ ĭ
_ {
Ù Ĩ
ro st
ĠT ou
e ur
Ġn g
ĠJ ur
A ge
en o
ĠW ide
ĠL one
B all
f est
ĠD ear
Ġint ra
Ġd os
il ot
g ot
ĠD in
Ġv ain
ĠG ul
H op
ĠN ate
Ġp ac
pe ll
ul us
ĠD y
t ro
ure n
z h
er b
ot le
Ġsh am
ol and
u j
D oc
E qu
iv o
ĵ ĺ
he ed
Ġo st
O A
æ ĺ
he ard
ĠF Y
ĠD L
R on
Ġs ack
I ce
ed ay
ĠB A
C ould
ĠF ist
it ant
Ġo re
L ay
ĠS as
et z
Ġthe at
Ġu m
Ġg ad
ĠT B
ĠD H
x on
I r
Ġ ì
ld om
M ur
ĠG ir
ĠP G
Ġwor m
I J
ad ic
æ ĸ
Ġdo i
at em
p ine
l ab
Ġcan s
E ver
im pl
Ġto es
h m
n ar
ou st
in ion
ĠN V
art en
ĠF ut
ĠC W
L ou
Ġ" '
Ġl ore
Ġs ou
ap le
ĠS ect
se at
im an
ct r
c ould
g em
D iv
st ad
P rom
h on
w p
D est
F W
Ã ¸
al ong
ĠL ud
C M
ĠR X
ĠB il
ĠM ight
Ġf al
ĠB S
st ill
L at
à ¥
Ġt ant
Ã ł
in as
or f
Ġst ing
ĠN it
ĠM our
ĠD T
od o
ĠT ow
Â «
en v
Ù İ
C a
ĠU g
ĠL v
D ial
ĠJ ab
b ay
f an
ĠH il
ad h
ĠT Y
ĠI O
em b
re ra
en ch
ĠD one
ing ed
or c
ĠN H
M ine
em ort
ers ive
Ġwor s
Ġv ul
Ġw o
ĠM ig
Ġl ith
id as
ĠP am
D om
Ġh id
ĠT P
B at
D T
ic us
ĠN T
the ir
Ġp od
Ġhe ap
â ĺ
un ion
B al
o an
> "
* .
F un
nd ra
ĠL I
w art
ch in
ĠR ig
ĠP U
em er
Ġon ions
Ġf a
Ġfor c
Ġhe el
i pl
ort ing
Ġf n
n as
h ide
N R
N ight
ĠH ak
ĠG H
ĠR ac
Ġcon ve
F all
ĠW ow
ed o
id ation
y u
ĠO C
Ġc z
ud s
ĠM ate
ĠG ur
ĠM k
ĠW id
ĠT L
B er
Ġm ant
S ide
h p
T ag
ĠK em
M il
â Ī
R ot
ĠW is
T en
pe x
ol in
ion age
f y
ĠT as
ĠN I
x d
ĠT F
ur st
ĠF ans
ĠL V
Ġg h
å ¥
X T
i q
Ġm ans
ĠF it
Ġg ent
Ġpro w
Ġwas t
ĠD ew
he at
Ļ Ĥ
v v
K n
od ore
- )
ĠM U
ĠH Q
Ġ" #
ĠL ing
H un
ra red
K A
ĠD ol
im o
01 5
ong o
R ow
A p
r and
d in
h ig
b ial
S end
Ġv ou
Ġn as
& &
E ast
im i
ĠK C
00 8
g el
ul as
Ġp ear
ĠW S
t g
V an
x c
is ch
W ay
ill as
Ġor n
ĠO B
g od
ĠA J
Ġv i
Ġ Å
H I
H ad
P ot
d l
Ù ħ
m is
Ġn ap
E F
m il
M ic
and o
P res
ĠR um
ĠE ra
he et
T y
art y
ak o
ĠF G
ĠP om
am us
S ay
ĠN D
W P
× Ļ
v ic
a er
P en
c ot
st ack
m age
ĠT ay
ĠL ar
L u
ĠA E
d an
ĠS ag
r ab
T I
oc o
ge x
pl ain
Ġha ul
ĠB ard
Ġs or
ĠL it
* ,
Ġbe et
ĠG le
Ġm um
ĠO g
C I
Ġt an
y ll
n ation
ĠK re
ĠS ally
ig i
ĠR in
Ġo l
ag ent
Ġin h
al an
ĠC ed
op us
ate l
Ã ª
P et
ĠR P
00 7
ĠJ ak
ĠS I
at l
ĠB ri
C our
K at
ld on
ĠH M
y et
ĠK ol
Ġf i
Ġne p
A X
and um
Ġm l
Ġne on
d ies
ĠH B
F B
ot ers
F D
e ight
; "
p ard
a um
H en
d p
us age
at ra
ĠR R
ĠL or
Ġc er
ĠT ac
r ans
is ans
Ã £
Ġl ig
ĠH z
th ro
P ad
ĠM X
ĠT S
J ud
Ġt ac
r b
ĠS G
x f
Ġl ure
ĠG ing
Î ½
an qu
op a
è ¡
ĠC V
Ġto re
Ġo ak
ĠA ch
at he
r m
Ġnot ions
F K
th us
Ġp ity
ĠA Z
C ut
on el
Ġl ent
an ic
ĠB od
á ¹
L ate
Y Y
ĠH ear
it ud
å Ī
z on
ĠI ch
Ġl ar
K im
w m
Ġor c
Ġbe an
? ]
st en
h om
ĠS ith
ĠThe m
Ġde ity
ĠH ok
Ġtr ay
â ľ
l ot
' /
w on
red d
Î ¿
d ot
ore st
ion ic
% ;
A ri
D a
ħ ĭ
g ive
Ġf ost
G al
ĠT ong
S pl
ud ing
i em
n om
Â ¶
Ġb a
C ur
Î ²
im il
at ri
Ġwe ld
ud er
ĠT T
L ic
ĠG ust
Ġd ir
ent on
c art
ĠG S
Ã «
c z
Ġp s
S ad
N a
M Y
Ġn ud
s le
ĠJ S
R en
Ġt ally
ĠK ag
is o
ing es
" -
Ġan th
and i
ĠF est
v ine
A U
ut m
Ġr ay
ĠG ol
Ġg le
ent ity
ĠS ight
ĠB end
Ã ¯
ĠG one
Ø ±
A z
ĠN Z
Ġgo at
( [
iv ation
ĠL ap
Z one
ĠU nt
V e
ĠM ing
v on
Ġl an
{ {
K S
01 6
ĠG D
ic ol
ak in
Ġ" .
× ķ
on ce
Ã ´
Ä ĵ
ĠW ol
K ill
t f
u id
ĠL L
Ġg um
Ġpro se
ed in
N V
d ain
ĠG W
ĠN im
el in
ĠL D
ig il
et o
Ã °
p ill
the se
and ing
m ust
ĠW ong
ri o
ĠE E
ess ing
n z
al is
ak is
ĠW ra
ĠH C
Ġ ï
g ro
ĠK ap
as u
ĠS ew
ĠT et
W C
D at
ab er
e q
est ation
F ight
est ine
ĠA o
Ġl est
ly s
ĠG ent
he i
c u
Ġy o
} .
Ġ" -
M ir
d ar
is ine
X P
re ally
) *
er os
? :
O pp
ĠW ear
k an
ĠA us
ĠA U
ĠG ut
ĠE at
Ġne c
ĠC age
ĠU E
Ġg er
N W
id an
+ .
z u
ĠW er
e us
L o
Ġdo om
ä ¼
Ġh p
G ar
Ġh ay
or b
ĠB ers
ĠD P
x e
ĠC J
L T
d im
ĠA the
ĠR ally
Ġcon e
å Ń
Ġt x
pp e
or u
um at
O E
Ġto ast
Ġg p
K en
ut z
ĠC um
ĠF ill
ĠE ff
Ġab ide
ĠI o
x a
an an
O pt
s r
at z
g if
R B
R od
f le
m ot
j ab
oc re
ĠG ly
å Ĭ
ĠS z
ol ate
ic one
H or
Ġr ab
l is
Ġe ve
m k
er ion
Ġch ap
ĠB D
w id
om ew
w ig
ĠF ul
00 6
t u
ic z
Ġ á
d one
Ġp est
r ame
ong s
and ro
* )
Ġth a
! --
H ol
se ver
j as
Ġp ent
e er
å ¼
ĠI E
ĠA H
ir ie
ok s
+ ,
s f
os o
ĠP F
le ad
d j
( _
! ,
v ice
t un
Ġfor ge
ĠH ate
ĠC ay
a an
P in
us ra
ĠC ain
k un
en os
ĠW C
y x
out ine
> .
ch id
/ +
Ġt et
in x
he id
U k
ab ol
v c
is al
t ri
ĠT ort
Ġe ther
g am
ĠH ers
ĠI z
ĠN P
Ġt ed
ĠR as
ĠB un
D er
ĠL is
01 1
en y
ĠR ab
ĠU h
ul ic
m ur
ĠJ D
Ġhe ir
Ġde ed
Ġof t
Ġn m
01 4
ĠJ al
Ġal le
ch rom
d t
ud ic
Ġo s
ĠN M
00 9
ĠR end
H om
ĠS age
am d
k k
Ġre pt
p red
Ġb un
t l
S her
ĠK ab
Ġw ow
ĠS ic
n u
Ġy en
ĠI g
J ac
f ing
se ed
E le
ĠD ong
å ľ
Ġd ra
M p
ack ers
P a
H o
L os
ri ly
Ġr ud
id em
nt on
å Ĳ
Ġsu ing
ke red
b ol
+ )
ĠW P
Ġu pl
' -
ant ine
i om
/ (
Ġs ar
ĠT N
ĠD art
Ġm p
Ġa h
Ġst al
ĠM N
ĠT at
ĠG at
Ã ¥
ĠH in
K N
ĠC ly
or ity
R M
ad an
et us
01 8
: {
ent a
Ġe g
id is
ĠN il
Ġm age
M om
D im
r ir
Ġthat s
an th
01 7
ĠD il
ve ll
ĠS ul
ĠW I
he it
Ġcan al
ĠC U
ĠH ir
ĠJ i
Ġpl ight
Ġp ing
oc ent
or st
ĠK R
Ġw ed
ore an
H on
pl ot
B F
Ġd ome
L v
od ic
V O
Ù ĩ
ul p
ĠD as
ĠR im
T X
Ġ( [
H F
E ight
ĠK ant
ore n
ir is
Ġor th
ge e
ore m
ĠD ion
ĠG el
Ġd st
ĠD W
' "
ch y
R at
ĠP K
P ak
â Ĩ
j un
W N
Ġt id
î Ģ
é Ĺ
[ _
ĠR M
v ag
ut a
æ Ń
ĠR ent
Ġnot ch
b ies
. <
ĠD V
Ġm un
ĠW ent
est e
ies el
H an
Ġwh im
ĠC G
ĠM am
il ion
Ġne oc
on o
ĠB M
Î ¹
# $
Ġtr am
ĠM W
ar ag
ab it
S ing
w ra
x i
I ter
ĠF D
R ew
Ġe ll
ĠG os
ome z
and em
P ur
qu ist
Ġj our
} )
G ot
Ġn ar
ĠK ro
ĠO le
p d
O l
U U
Ä ±
u ay
[ [
p ast
D un
V W
Ð »
ĠR ear
Z Z
is ol
Ġw re
m ort
Ġc ess
a q
E B
ge ant
01 2
F ri
ch ard
Ġc f
Ġd B
ra il
p el
Ġl ame
s id
ess im
æ Ŀ
01 3
å ī
m u
all a
Ù Ī
Ġg or
ĠW M
J am
ĠR i
F G
ĠL ak
N ic
e as
- (
ĠP I
ĠC Y
ĠH ew
ar ak
ag her
B an
j ac
01 9
/ "
t k
L B
Ġch op
ĠK is
ĠP B
od or
Ġb art
" '
S ame
ĠK ou
em is
J ay
Ġch ore
ĠA ra
s ac
å ¸
Ġl am
il ess
ĠG I
s ort
Ġ" (
K y
E ll
L en
ĠD ud
Ġpl ur
st ed
o it
ke f
Ġd c
S us
ar ate
on ial
K R
ĠT ent
ĠH os
Ġch ast
ich t
D s
ĠB es
F red
oc he
] "
ĠM ast
ĠD re
n ine
x b
c ation
l ag
ĠH ed
ĠD um
ĠF ol
ĠT ul
iv ist
P ers
ĠL S
Î µ
' ?
Ġhe n
Ġo t
L V
Ġr ant
Ġb ri
ĠE id
Ġp i
Ġ( ~
L ost
T re
S on
m ong
ĠT ide
end o
ag us
/ #
Ġl ac
v im
l ore
ĠF em
h ack
K Y
ĠW en
s q
ĠC N
j et
> :
Â ²
Ġle x
g p
ĸ ļ
ĠL ect
G Y
as her
Ġn our
U X
ĠO D
Ġf f
ĠK ak
um ers
L I
R s
M is
L M
W i
h d
H ay
U nd
Ġa le
ĠR V
s in
ent in
ok y
ĠT ate
ĠD ome
ĠP V
Ġc p
B and
Ġl ions
ĠH K
R ain
ĠB rom
ĠF P
T al
it he
Ġo ve
ĠR D
{ \
à ¹
ĠE h
ĠG ast
ĠN ir
Ġa ce
) !
c n
ĠP ag
A x
Ġt v
Ð º
ĠT I
ĠS ly
Ġ ë
Ġis ot
L y
et ies
ĠR w
s ame
r w
U V
ad al
ĠH ort
ĠB ie
st ay
Ġcom et
qu el
P g
d al
g ear
ĠS J
ĠK w
ĠO ro
F it
= ~
ed en
ĠL er
ĠN um
S ent
Ġsa p
âĢ ķ
ĠE k
ĠM ent
or an
ur us
ĠA in
Ġa il
Ġup ro
ç ī
Ġg a
ĠK ad
è Ģ
k ok
ac i
y out
ĠL iv
ra x
f if
art e
m L
end if
: '
f ew
ĠD ag
ul i
J J
h z
R ate
ra f
ad v
} \
ist ine
Ġg ag
Ġwh ist
C s
pt a
H O
L i
Ġp es
all oc
F ew
n at
ĠJ O
ĠK om
å Ľ
ist or
â Ŀ
Ġha il
Ġhe ed
D ie
j ong
å ·
Ġde em
ag ar
X L
ĠO M
id ad
d ra
è £
. #
m om
ĠC ul
op ter
N L
è ¿
Ġs od
( -
ĠJ R
ĠC ig
ust ing
Ġe h
/ $
ĠC ame
d n
Ġ ll
H um
M os
ill in
ap a
ill ard
ĠK od
D ar
l est
ĠF res
ing o
R F
N M
ĠH ut
Ġsh ack
Å ¡
ion a
ĠN os
Ġf ri
k b
Ġsh un
N B
er ity
Ï Ħ
H ack
ĠI k
é ĥ
ĠM F
ĠK art
ĠM ud
our age
H B
ut on
Ġal k
Ġout ing
u ld
ĠW ast
ĠW et
Ġw art
ĠM V
ĠD K
n ir
st all
i ak
res y
Ġcan e
J u
Ġre ver
) '
op al
he x
N um
ĠB ain
Ä Ł
and el
Ġs ul
K h
Ġch i
r one
Ġ" ,
å ¹
J a
G W
ĠR W
= /
l ost
b ear
å ¿
ĠH ive
M u
ĠW an
: [
pe i
ĠH ast
Ġnot ation
l os
T el
p od
Ġc is
T ab
pe er
Ġh ust
at u
ve z
ĠU W
er i
L ew
t ight
l ich
b il
Ġm k
B ul
W a
Ġ" <
C V
Ġch ant
5 01
st ri
ç Ľ
y nt
il on
p ac
Ġb red
ĠP s
ro th
Ï ģ
Ġint el
Ġcom a
le in
I l
ĠK Y
ĠE F
æ ī
en f
G i
C t
j ay
L oc
ot ent
Ġs i
+ (
Ġme ll
A st
R am
Ġse q
T s
F ill
æ Ĺ
F ly
N it
ra ke
ĠH ou
C ra
F at
ans en
Ġc rou
Ġby e
N H
I Q
G s
S a
ve h
Ġj ab
ĠG ap
A k
V a
M K
âĢ ł
ort ment
os ate
t re
ĠS ort
Ġex qu
% -
c v
ĠM J
> (
igh am
Ġle ve
c as
es ame
f et
o S
s ong
us her
s ent
ig ans
Ġf res
t n
ĠL T
N i
an ie
ct l
ĠK S
ar at
ĠL ans
ate red
H all
art a
Ġt ion
x s
Ġr ag
g res
Ġse w
ĠB j
ĠP ing
it u
l ain
X Y
ĠF ou
ĠR ak
M ust
C le
d x
ĠP t
ĠR G
st y
b h
ĠD ice
J C
d k
F ine
il ers
é ģ
oc oc
l p
Ġv as
s ol
B a
é Ģ
on en
P ri
ĠO G
- .
j p
P ast
Ã Ľ
T W
k il
ar ist
ar ine
g z
ĠG um
Ġd h
ro red
J ess
å §
U h
Ġn at
Ġk ay
am n
ĠR iv
Î ¼
/ )
ans k
ab o
Ġ Ä
em e
= {
G am
ĠI B
re ro
ĠN g
t p
Ġde an
Ã ®
re b
ĠM G
ĠB G
ar ro
ĠI ke
Z A
ĠC th
é ĩ
V ers
at ial
Ġal i
U A
ĠG F
ig ers
d h
ĠK ok
Ġs age
ĠD ed
D J
T her
¶ æ
Ġsh ri
¥ µ
Ñ ĥ
n in
ut ra
Ġo y
res ist
Ġb ir
am ong
ĠF ay
ve c
Ġg on
C as
ad le
ĠL ich
A ff
ld e
ĠI A
R ap
in us
m op
Ġhe ct
Ġst ag
Ġg ust
R D
ï ¸
es se
D ir
N ice
$ .
R us
p id
ĠI G
ĠL ies
he ment
Ġm ould
ĠG on
G a
C ro
ir u
an z
T on
t all
p ain
D ro
ĠD U
at os
Ġ( &
D N
p un
Y e
b ill
Ï Ĥ
Ġa z
ĠB ac
W ing
end as
er ic
s oc
y g
ĠS op
un i
D u
ĠR H
re pl
Ġre el
ĠJ ag
â ī
æ Ħ
R os
ap est
, )
ĠN ed
Y D
y re
ĠU d
U nt
il us
Ġb ou
Ġt art
Ġa u
Ġre ap
en ic
Ġh ive
L es
b g
r n
Ġp ly
Ġd art
Ġm ul
L R
ì Ŀ
ĠS ap
T G
qu art
ĠM ew
en ers
Ġde x
d m
ĠM n
ack y
Z e
b red
d B
ot ions
N in
ar ial
ĠN ab
H ig
a qu
v p
J er
Â º
å ¾
l if
ĠD ir
M H
Ġp ans
ĠH I
al er
oc on
K C
ĠA im
t ie
Ġm L
D X
ĠW B
Ġt ad
ig or
ic ter
ĠT ie
E y
s b
Ġc iv
ĠD F
W I
p he
c um
B ear
ist on
æ °
H ill
ĠE g
V T
ant age
ĠI on
ĠF ir
f ab
se i
! ]
M ess
g c
T es
Ġ" %
ĠP ly
ĠE Q
Ġr ation
v t
Ġn s
all i
ĠE ur
ow ment
F ans
Ġme ch
ent ing
t ur
» Ĵ
h w
U b
s ed
Ġc c
Ġd ich
Ġe b
Ġm c
ri ot
ĠL al
å ¦
at en
ent ure
ic ent
pe ak
C os
o in
ch all
ok in
am ate
ff er
} "
ing en
^ {
c ong
m x
is el
U F
on et
Ġall oc
le z
ĠL ok
ĠP end
b ly
an on
H M
un o
W ra
ad em
D ur
> [
Ġn em
ĠC ure
S ol
re ve
ĠM ant
ĠB ust
B s
Ġm ig
v r
h ate
p end
v ir
J A
he on
Ġ" \
ain ment
G V
Ġt c
ment al
Â ¨
ig on
ĠT art
ou f
G all
ĠL M
ĠC ic
é Ľ
K ay
ĠR I
the l
or is
U m
K a
Ġb os
ĠG us
ul z
æ ³
m ess
Ġg ir
N Z
ĠN ing
p ure
d os
Ġe q
Ġsu nd
ĠG G
A le
ĠF n
ĠL R
: (
ist as
ed es
V en
t el
ĠA e
ar f
N ine
å ½
u pt
Ġn i
Ġ( %
ĠS ok
X M
n p
ĠC i
w i
s am
at om
em n
g il
at is
it on
K ar
est ing
å ĳ
I an
× ¨
ac l
Ġs s
il ant
l ap
F ear
Ġt ame
re k
K I
ag ate
å Ĩ
ĠB W
ĠK ard
ut an
J D
ĠU R
am ide
Ġ( {
z os
ĠR ack
us at
Ġ ie
S oc
Ġf ir
m ist
> ]
ĠR ag
ak ra
t an
ch al
re ly
( \
G U
st a
ar b
Ġb our
ĠB is
G er
Ġs ans
Y o
f ine
Ġa ust
G ear
s and
Ġpl ent
Ġ( <
Y R
) }
ĠU X
al m
æ µ
Ġv ap
H u
O x
M as
q q
ĠA i
il an
z ig
× Ķ
ĠL ack
ri ver
ĠH L
Ġde pl
S ac
os her
Ġat ro
Ä ĩ
Ã ī
f m
} :
ĠM um
B u
) [
Ġk a
Ï ĥ
end e
h im
ut or
V i
ĠP es
k id
o ct
j ad
un in
é ĸ
S G
ĠP f
Ġs v
P ain
ĠL W
, .
H ide
in se
n en
R h
k r
T a
iv as
Ã į
ĠE as
t ch
oc l
ig l
Ġout p
ich o
P i
H K
ĠA ad
Ġa y
ad as
ĠJ J
Ġm u
j ri
ĠN ay
im et
Ġp as
k B
Ø ¯
Ð ²
Ġdo ve
l ust
un er
or r
$ {
ot ally
f ur
R and
ĠO st
gh ost
f ac
ou k
d ial
le on
ĠF as
T ed
F U
w ine
st ab
Ġo m
at an
ĠN G
ĠA res
ĠD ent
01 00
ĠD ive
ard y
ĠP our
ĠC rom
T our
P red
Ġh oc
j am
Ġst out
f red
W r
am ar
t al
Ġ ions
w it
ĠG ould
ĠL on
ab c
ĠM im
ĠF ra
as ions
ĠJ ol
² ¾
ĠN un
w b
g ans
å į
n os
ĠP oc
Î »
W T
ore al
ĠJ C
ĠT ess
Ġle ans
id ine
( &
Ġh r
ĠO y
pe e
pe ed
P ic
ĠA Q
t om
ĠB ans
Ġb um
b os
qu a
q t
g all
Ġon t
ĠR out
ou ter
ge y
á µ
Ġcan v
r ack
S ab
ĠP all
% "
ĠG w
ess on
Ã Ł
R ing
ac ly
G as
op ol
Ġw il
Ġg in
Ġst s
ĠM d
M N
ant es
Ġv il
C G
ost a
ĠT ir
Ø ¨
% ]
g m
ic um
g ew
ur at
ĠJ ed
B ow
Ġl as
ĠW im
ĠM b
and e
× ľ
an os
an se
N ar
ill ions
et ter
n ear
Ġup he
Ġwh ore
Ġr ive
ĠH O
C ow
d or
ĠT os
ast a
H al
E th
ĠK H
ĠC out
ac as
D ou
Q B
t oc
Ġpl at
ĠK ut
ate ch
ç ľ
Ġt s
ĠT il
Ġpro d
Ġc ac
R u
Ġsh in
B G
ut f
H at
" !
P K
ĠK op
o ing
T i
n ard
ĠD res
q i
ill ac
al ore
f g
ĠC ust
Ñ ı
Ġin ver
N ear
ĠW it
Ġp c
ĠA u
ĠK es
Z X
.. /
os al
Y u
G il
al on
Y N
ad en
. ?
ĠI ter
ĠB out
Ġh ut
x us
ist e
p b
il and
th in
or os
un ed
as us
ill ation
r x
ĠU z
ing ers
ch art
J e
v u
ol ing
ur ion
qu ant
re th
w l
f en
or as
z ar
_ (
se q
N J
v ill
p ak
j j
ĠG im
G h
F al
F u
an us
ar am
Ë ľ
Ġf end
ad j
L G
g at
H Q
ĠW T
ĠN F
art on
à ¼
r g
ĠN B
Ĥ ª
ĠG ow
ot in
K al
\ -
D H
Ø ª
ĠE G
t one
Ġout l
8 01
M i
O re
Ġt d
P od
C and
@ #
k l
7 01
á ¸
L U
M ut
ĠN ess
Å Ĥ
ĠB F
m ud
g art
¶ ħ
ap ist
J V
6 01
ĠJ A
Ġk o
K u
Ġp ard
å º
am en
Ġse p
G ay
ow ay
l us
pp s
ap o
al os
k at
ĠT J
r f
= [
il ic
Ġth or
em o
b is
ad r
Ġk er
Ġth w
st im
A y
ĠS ear
ĠP is
es on
T am
Ī è
Î ³
× ª
V ill
ri et
p ter
z in
V o
ĠD ul
ĠB am
K T
u ers
re q
ain a
ĠO u
Ġp ag
ur an
ĠH F
K ent
ĠC ot
F ed
J et
ĠJ ing
Ġl il
ĠK T
Ġc out
Ã »
in en
B ra
R N
le igh
an u
i age
x p
ide on
F s
as ar
ro o
E H
L ed
ud os
k j
M U
i ard
O ak
Ġm ing
ĠN X
in ant
F el
Ġab er
res et
in et
and an
ĠC es
Ġha pl
X i
W ide
ĠI U
z x
H Y
pe es
Ġd j
H ur
Ġy r
m A
P F
Ġr m
o ine
k as
S ort
w ow
Ġth o
S i
oc om
es an
Ġj an
rom a
G ro
f al
ĠH ust
) --
w ant
D W
× Ĳ
Ġp t
ight on
Î º
Ġcan ine
w k
ĠI c
Ġl ich
ĠA X
\ '
Ġre q
ĠK et
è »
pe c
Ð ¼
end i
ĠR N
ot om
m ol
end on
Ġal ot
ĠC t
! .
Ġc x
ĠC f
pt in
c our
F N
H our
Ġs ig
M X
Ġworld ly
ĠE W
ab ies
à ©
us b
he ter
M it
Ġf ide
ul o
F er
op ot
ĠE B
å ¯
m r
B le
M J
Ġf s
P ed
il ial
C art
ĠB id
V G
ĠK ear
Ĥ İ
on is
C W
il k
g ap
ac qu
h ak
ad ay
se m
ĠH Y
Ġn os
C U
å Ĥ
= $
ol on
Ð ´
Ġwe e
am l
ĠU D
t in
um o
it ans
æ ł
Ġr and
k ies
el i
> )
ĠA ure
Ġex ce
ĠL ent
end um
Ġd w
D ust
ģ «
ly ak
st ice
Ġg ol
C od
w u
Ġ" +
ĠS od
D b
F Y
Ġa pe
en i
op he
ĠL ust
G re
å İ
E h
æ ©
Ġv im
: #
v re
ĠK D
F ab
em i
ĠD os
Ġl s
pp ard
Ġk an
ĠThe o
j er
Ġp end
ic i
Ġk h
m ight
T ro
Ġ( _
ĠT ant
ĠT G
ĠM ith
ĠP W
O il
est ate
ç «
' >
C N
q v
on ew
oc ally
Ġsh one
ĠS X
Ù Ĳ
Ġ" @
ed ar
ic c
S ong
A id
ĠF N
out her
å Į
ong a
ĠI w
ĠD ill
Ġd x
t ap
ill us
ĠS v
ab al
ĠU M
Â ¢
ur on
F if
Ġpro pe
oc ard
p as
ud en
n ice
ĠU L
f w
ess en
ect ar
s ie
V B
ith ing
. }
ĠN ou
l c
F H
Ġr s
ĠG est
ĠT ight
ic as
` .
ĠF et
e ve
ess es
Ø ¹
en um
H art
Ġan a
f am
ĠH es
-- +
G y
Ġj s
_ .
Y C
J R
ĠL ol
um ar
Ġd ing
m ie
Ġn ig
J en
ĠH W
ag all
ĠP J
Y A
al am
Ġan ew
I U
ĠL X
pp a
J O
Ñ ĭ
j it
h ra
and ers
g ur
Ġm t
ĠD N
T ap
K ate
ke pt
Ġj a
ard e
ab an
G D
v g
Ġs ow
F est
Ġ" {
Ġ( >
u ve
ow an
s g
Ġst en
ĠS ut
Ġs ag
ĠF t
ĠC K
ĠL od
t ions
Ġm d
æ Ģ
q us
ĠA ke
] -
: ,
ĠW em
Ġbe re
Ġ ig
ol ed
ĠT one
Ñ Į
ĠG es
ç ĭ
ĠB ore
ag ra
ģ ĸ
Ġ" _
Y L
R ect
Ġle th
á ½
Ġne b
ĠJ ou
¬ ¼
el n
Ġd ab
T an
od an
y z
d L
W B
ot ide
k us
é £
ol or
Ø ©
Ġs d
nd a
D one
Ġw ig
W an
Ø ³
rom pt
Ġa ur
ĠR L
è ª
er d
is in
I v
Ġtr u
ç ·
iv ot
em p
es m
ĠO o
ĠK P
« ĺ
ĠW age
Ġv m
r l
B ed
h ap
ç ķ
ĠE ly
Ġn p
re pe
ast on
Ġw i
O nt
Ë Ī
n il
ĠW ak
T x
pe z
Ġd an
G ab
Ġe ct
gh a
ant y
N ation
b ent
Ġ( =
Ġit al
ĠD G
ow ard
C u
k os
ĠU A
c and
Ä į
S in
ore a
ĠT us
è ¯
ab re
Ġf ul
= #
Ġy ak
â ģ
V el
P ear
k w
ant z
D ad
and r
Ġout age
j on
Ġf ou
ĠH ess
ac id
is u
el ist
æ ĥ
pp el
Ġl um
ĠT ome
ch u
f p
ĠR U
W s
od on
ĠN K
ä ¿
Å Ł
N ich
( *
un ing
rou se
Ġp id
ers en
Ġal um
ĠG ou
es i
T N
em ing
w t
Ï Ģ
b p
Ġab l
ĠR J
ĠK M
S it
o gh
Ġt i
ag y
ĠU ri
ë ĭ
ag ame
R W
æ ķ
P ir
al us
g ra
Ĭ ±
ĠN id
n b
9 01
Ġg ore
ab us
N K
L as
un ic
-- >
Ġsa x
Ġfor s
Ġv a
ĠO v
; }
G ra
il ver
ĠD ing
pl in
ff en
R y
ĠS ard
qu ad
* :
Ġb il
z ers
Ġb ould
ĠO U
ç Ħ
T ar
ig ent
ow e
$ ,
rom an
m one
Ġb c
R um
ĠK E
ĠH H
ĠG ong
Ġal as
Ġg ul
t il
Ġch ic
V K
Ġp ies
ĠB J
P and
ĠO W
ist ar
T u
ith s
w at
Ġh one
Ġd ow
in ic
Ġis o
Ġan us
id on
l ol
Ġor ally
Ġcon es
v P
as in
z n
ir in
ĠB ok
qu it
Ġall ot
Ġwh ine
ic ion
/ ,
Ġb is
V L
Ġd red
j ew
N s
) =
J ar
n w
F ac
ĠA ly
Z en
Ġp u
Ġhe p
Ġa k
x ff
ight ing
m ast
Ġm end
e ers
ĠL F
al ter
E at
F le
` ,
Ġm M
em ate
est ro
ĠS our
ig el
: ]
Ġp all
ĠJ M
ð Ŀ
M ot
Ġk i
at ro
) +
Ġd f
Ġfor ay
è ĥ
ie ver
Ġn ab
Ġk b
/ _
ri z
N at
ĠL ur
J B
Ö ¼
ĠC iv
V ice
L ie
U l
ĠI ro
ud i
Ġv ans
+ =
< ?
å ĭ
ut i
d ad
í ķ
c it
ll an
n v
t is
as el
j c
à ¦
. $
y i
ĠN ost
Ġn un
x es
ic ist
R G
ĠJ em
ag os
P ie
Y P
ĠK L
ĠT ud
Ġcon n
âĢ İ
z l
end ra
ĠR ost
Ġr c
it ent
all ion
h ur
y k
Ġt ul
K id
q s
W F
u in
! /
red o
im ag
st h
Ġgo b
er ial
I re
D K
% :
g ain
H ong
R H
ĠR ect
L ot
n r
rou ch
ac us
O X
ĠT end
Ġr g
p our
] +
ĠH G
Ġt f
ct ure
u pe
! :
K o
ud ers
Y E
Ù Ĵ
S el
j en
B W
ay e
n it
ĠF W
d ust
Ì ¶
= ]
ĠK he
Ġd ag
Z I
ĠS ie
s it
Ń ·
ĠT id
è Ī
ĠW D
Ġt ir
ri us
ĠW ad
] }
our ke
N ut
art ist
G b
W ard
Ġin oc
_ >
å ĩ
J s
om ial
and re
P B
E c
- [
× ŀ
ar ie
ĠS ack
c one
es a
an ke
M Q
ab and
Ġs ill
ĠN ur
ed ly
Ġp im
ĠK us
w x
world ly
M ist
k ie
im ar
Ġde re
le es
Ġtr out
ç Ĳ
Ġd d
i our
ac ion
R ust
W o
ad ra
all o
ct x
d q
it ri
ĠK ers
Ï ī
v ich
P ure
F ra
L t
B one
ter a
× ĳ
it one
ant am
Y an
h id
K in
ĠP se
é ļ
Ġit ch
ĠR x
s at
ĠL H
z ie
ĠS Q
Ġbe ad
\ <
ge ist
ome ver
N ap
M F
ĠI ly
P ing
Ġs ly
ce le
al ist
M and
ure en
ch am
z ac
ĠM ou
ac ers
Ġf id
Ġwill s
t if
j ing
A im
] '
el ight
ay n
il age
b j
al ions
ĠK ul
Ġg ist
ĠT ad
B ir
F a
Ġc s
ĠW ally
ig un
J r
Ġab ack
Ġo ust
Ļ ½
Ġg ou
ĠL U
ill i
z ag
ad ies
ac an
ĠP on
ent o
ain ers
Ġk W
ĠK and
× ©
rom y
J M
Ġ( /
